{
  "version": "1.0",
  "truncation": null,
  "padding": null,
  "added_tokens": [
    {
      "id": 0,
      "content": "[PAD]",
      "single_word": false,
      "lstrip": false,
      "rstrip": false,
      "normalized": false,
      "special": true
    },
    {
      "id": 1,
      "content": "[UNK]",
      "single_word": false,
      "lstrip": false,
      "rstrip": false,
      "normalized": false,
      "special": true
    },
    {
      "id": 2,
      "content": "[SEP]",
      "single_word": false,
      "lstrip": false,
      "rstrip": false,
      "normalized": false,
      "special": true
    }
  ],
  "normalizer": null,
  "pre_tokenizer": {
    "type": "Whitespace"
  },
  "post_processor": null,
  "decoder": null,
  "model": {
    "type": "WordPiece",
    "unk_token": "[UNK]",
    "continuing_subword_prefix": "##",
    "max_input_chars_per_word": 100,
    "vocab": {
      "[PAD]": 0,
      "[UNK]": 1,
      "[SEP]": 2,
      "(": 3,
      ")": 4,
      "+": 5,
      ",": 6,
      ".": 7,
      "0": 8,
      "1": 9,
      "2": 10,
      "3": 11,
      "4": 12,
      "5": 13,
      "6": 14,
      "7": 15,
      "8": 16,
      "9": 17,
      "=": 18,
      "E": 19,
      "P": 20,
      "S": 21,
      "[": 22,
      "]": 23,
      "a": 24,
      "b": 25,
      "c": 26,
      "d": 27,
      "e": 28,
      "f": 29,
      "g": 30,
      "h": 31,
      "i": 32,
      "j": 33,
      "k": 34,
      "l": 35,
      "m": 36,
      "n": 37,
      "o": 38,
      "p": 39,
      "q": 40,
      "r": 41,
      "s": 42,
      "t": 43,
      "u": 44,
      "v": 45,
      "w": 46,
      "x": 47,
      "y": 48,
      "z": 49,
      "##e": 50,
      "##l": 51,
      "##o": 52,
      "##n": 53,
      "##g": 54,
      "##h": 55,
      "##a": 56,
      "##b": 57,
      "##k": 58,
      "##i": 59,
      "##r": 60,
      "##z": 61,
      "##y": 62,
      "##c": 63,
      "##m": 64,
      "##x": 65,
      "##f": 66,
      "##u": 67,
      "##t": 68,
      "##p": 69,
      "##d": 70,
      "##s": 71,
      "##3": 72,
      "##7": 73,
      "##2": 74,
      "##v": 75,
      "##q": 76,
      "##j": 77,
      "##4": 78,
      "##8": 79,
      "##w": 80,
      "##9": 81,
      "##1": 82,
      "##0": 83,
      "##5": 84,
      "##6": 85,
      "##E": 86,
      "##P": 87,
      "##ak": 88,
      "##ng": 89,
      "kak": 90,
      "##ya": 91,
      "##si": 92,
      "##ot": 93,
      "##an": 94,
      "pe": 95,
      "SE": 96,
      "SEP": 97,
      "##or": 98,
      "##al": 99,
      "ya": 100,
      "tot": 101,
      "total": 102,
      "se": 103,
      "##rb": 104,
      "rp": 105,
      "##00": 106,
      "000": 107,
      "##us": 108,
      "##asi": 109,
      "##nya": 110,
      "nasi": 111,
      "##en": 112,
      "##bu": 113,
      "##yam": 114,
      "##orsi": 115,
      "##el": 116,
      "ayam": 117,
      "##ar": 118,
      "sa": 119,
      "ma": 120,
      "##eng": 121,
      "##er": 122,
      "porsi": 123,
      "totalnya": 124,
      "##ang": 125,
      "si": 126,
      "##et": 127,
      "##ibu": 128,
      "##ap": 129,
      "pes": 130,
      "##ah": 131,
      "##ong": 132,
      "mi": 133,
      "ch": 134,
      "ribu": 135,
      "##ic": 136,
      "##ke": 137,
      "##oreng": 138,
      "goreng": 139,
      "oke": 140,
      "##es": 141,
      "ba": 142,
      "##ngk": 143,
      "dong": 144,
      "siap": 145,
      "##ngkus": 146,
      "##as": 147,
      "##ik": 148,
      "bu": 149,
      "##ed": 150,
      "##ri": 151,
      "es": 152,
      "mau": 153,
      "##ick": 154,
      "##arg": 155,
      "##icken": 156,
      "chicken": 157,
      "bak": 158,
      "##tu": 159,
      "harg": 160,
      "per": 161,
      "##ol": 162,
      "##am": 163,
      "##ur": 164,
      "##ad": 165,
      "##ny": 166,
      "sam": 167,
      "peny": 168,
      "penyet": 169,
      "satu": 170,
      "pesan": 171,
      "not": 172,
      "noted": 173,
      "##um": 174,
      "##op": 175,
      "mie": 176,
      "##ja": 177,
      "dan": 178,
      "##ih": 179,
      "##at": 180,
      "pesen": 181,
      "baik": 182,
      "ped": 183,
      "##mp": 184,
      "##it": 185,
      "##eh": 186,
      "aja": 187,
      "##ni": 188,
      "##adi": 189,
      "##so": 190,
      "jadi": 191,
      "nih": 192,
      "sus": 193,
      "##dang": 194,
      "tel": 195,
      "susu": 196,
      "or": 197,
      "##ing": 198,
      "##ga": 199,
      "ti": 200,
      "##anya": 201,
      "harganya": 202,
      "##is": 203,
      "bakso": 204,
      "ord": 205,
      "pak": 206,
      "order": 207,
      "ke": 208,
      "seb": 209,
      "du": 210,
      "10": 211,
      "bungkus": 212,
      "pi": 213,
      "set": 214,
      "##te": 215,
      "sama": 216,
      "##ek": 217,
      "seg": 218,
      "jum": 219,
      "##on": 220,
      "le": 221,
      "##elas": 222,
      "segelas": 223,
      "##ok": 224,
      "##in": 225,
      "min": 226,
      "sep": 227,
      "seporsi": 228,
      "dua": 229,
      "##otol": 230,
      "sebotol": 231,
      "##wa": 232,
      "##ring": 233,
      "tiga": 234,
      "piring": 235,
      "satuan": 236,
      "##engah": 237,
      "setengah": 238,
      "sebu": 239,
      "sebungkus": 240,
      "samb": 241,
      "nya": 242,
      "ku": 243,
      "##akan": 244,
      "##wang": 245,
      "##ta": 246,
      "harga": 247,
      "pedas": 248,
      "##opi": 249,
      "##ewa": 250,
      "##ow": 251,
      "mas": 252,
      "kopi": 253,
      "sambal": 254,
      "bawang": 255,
      "##la": 256,
      "sedang": 257,
      "pedes": 258,
      "telur": 259,
      "##vel": 260,
      "level": 261,
      "ang": 262,
      "##om": 263,
      "dik": 264,
      "sini": 265,
      "esnya": 266,
      "dikit": 267,
      "teh": 268,
      "anget": 269,
      "mamp": 270,
      "mampus": 271,
      "dewa": 272,
      "te": 273,
      "pake": 274,
      "gak": 275,
      "##ag": 276,
      "##bak": 277,
      "dibu": 278,
      "dibungkus": 279,
      "makan": 280,
      "##5rb": 281,
      "##bo": 282,
      "##3rb": 283,
      "##4rb": 284,
      "##1rb": 285,
      "##2rb": 286,
      "re": 287,
      "##ch": 288,
      "ter": 289,
      "##un": 290,
      "##ie": 291,
      "##9rb": 292,
      "##8rb": 293,
      "##0rb": 294,
      "##7rb": 295,
      "##uk": 296,
      "br": 297,
      "##lah": 298,
      "##il": 299,
      "##6rb": 300,
      "bakar": 301,
      "##ep": 302,
      "##ris": 303,
      "telor": 304,
      "##ju": 305,
      "jumlah": 306,
      "jumlahnya": 307,
      "keju": 308,
      "##atte": 309,
      "latte": 310,
      "##ut": 311,
      "sp": 312,
      "udang": 313,
      "minta": 314,
      "brow": 315,
      "rp1": 316,
      "ben": 317,
      "##py": 318,
      "##od": 319,
      "jumbo": 320,
      "##nd": 321,
      "##os": 322,
      "##ee": 323,
      "##rispy": 324,
      "##oc": 325,
      "##af": 326,
      "##ba": 327,
      "bg": 328,
      "jus": 329,
      "rp6": 330,
      "##im": 331,
      "hot": 332,
      "bang": 333,
      "sop": 334,
      "rp5": 335,
      "##aw": 336,
      "browni": 337,
      "bel": 338,
      "brownies": 339,
      "kk": 340,
      "##eran": 341,
      "##ees": 342,
      "rp3": 343,
      "rp4": 344,
      "ic": 345,
      "ric": 346,
      "bol": 347,
      "##ahu": 348,
      "##get": 349,
      "##ung": 350,
      "##em": 351,
      "bis": 352,
      "yang": 353,
      "ori": 354,
      "kuah": 355,
      "kan": 356,
      "rp2": 357,
      "mbak": 358,
      "man": 359,
      "##rek": 360,
      "crispy": 361,
      "chees": 362,
      "##ood": 363,
      "tahu": 364,
      "##dget": 365,
      "budget": 366,
      "beneran": 367,
      "tea": 368,
      "##kan": 369,
      "boleh": 370,
      "##and": 371,
      "##omie": 372,
      "gep": 373,
      "##ck": 374,
      "so": 375,
      "##gin": 376,
      "seaf": 377,
      "##aging": 378,
      "seafood": 379,
      "origin": 380,
      "tar": 381,
      "daging": 382,
      "original": 383,
      "ikan": 384,
      "ind": 385,
      "pec": 386,
      "jam": 387,
      "geprek": 388,
      "##au": 389,
      "bisa": 390,
      "##amp": 391,
      "##gu": 392,
      "##oto": 393,
      "su": 394,
      "beli": 395,
      "manis": 396,
      "ice": 397,
      "mat": 398,
      "indomie": 399,
      "choc": 400,
      "##jo": 401,
      "##1k": 402,
      "spe": 403,
      "##5k": 404,
      "##eb": 405,
      "##ry": 406,
      "cok": 407,
      "##lat": 408,
      "gu": 409,
      "bo": 410,
      "##oz": 411,
      "kr": 412,
      "##rg": 413,
      "##3k": 414,
      "##2k": 415,
      "##4k": 416,
      "##oti": 417,
      "ac": 418,
      "roti": 419,
      "cheese": 420,
      "##ha": 421,
      "##yak": 422,
      "wing": 423,
      "##lit": 424,
      "as": 425,
      "##pi": 426,
      "rp7": 427,
      "bla": 428,
      "black": 429,
      "##le": 430,
      "soto": 431,
      "##mon": 432,
      "penyetan": 433,
      "mar": 434,
      "##ele": 435,
      "di": 436,
      "##8k": 437,
      "##6k": 438,
      "##7k": 439,
      "sapi": 440,
      "##ti": 441,
      "##9k": 442,
      "asam": 443,
      "##0k": 444,
      "mer": 445,
      "men": 446,
      "wings": 447,
      "tha": 448,
      "terus": 449,
      "##tr": 450,
      "top": 451,
      "cr": 452,
      "sm": 453,
      "11": 454,
      "jamur": 455,
      "##cha": 456,
      "lele": 457,
      "camp": 458,
      "campur": 459,
      "##ff": 460,
      "ca": 461,
      "##yaki": 462,
      "rica": 463,
      "pecel": 464,
      "teri": 465,
      "coklat": 466,
      "fr": 467,
      "##ram": 468,
      "beb": 469,
      "bebek": 470,
      "emp": 471,
      "##bus": 472,
      "taro": 473,
      "rebus": 474,
      "kec": 475,
      "bes": 476,
      "##erry": 477,
      "##hi": 478,
      "mil": 479,
      "boba": 480,
      "##sis": 481,
      "teriyaki": 482,
      "empal": 483,
      "pang": 484,
      "temp": 485,
      "##ari": 486,
      "dad": 487,
      "ijo": 488,
      "sei": 489,
      "##yo": 490,
      "##ay": 491,
      "co": 492,
      "merah": 493,
      "matcha": 494,
      "##tung": 495,
      "if": 496,
      "ditung": 497,
      "ditunggu": 498,
      "12": 499,
      "##annya": 500,
      "pesanannya": 501,
      "masuk": 502,
      "##wet": 503,
      "##ana": 504,
      "masakan": 505,
      "##sial": 506,
      "spesial": 507,
      "kulit": 508,
      "##ihun": 509,
      "bihun": 510,
      "marta": 511,
      "martabak": 512,
      "aceh": 513,
      "sosis": 514,
      "##eef": 515,
      "beef": 516,
      "gur": 517,
      "besar": 518,
      "guram": 519,
      "##owl": 520,
      "tempe": 521,
      "bowl": 522,
      "saus": 523,
      "pan": 524,
      "##berry": 525,
      "13": 526,
      "##rger": 527,
      "bakm": 528,
      "lemon": 529,
      "##uc": 530,
      "burger": 531,
      "##pa": 532,
      "##per": 533,
      "ste": 534,
      "iga": 535,
      "steak": 536,
      "##ent": 537,
      "moz": 538,
      "gula": 539,
      "##be": 540,
      "##su": 541,
      "##jau": 542,
      "##ir": 543,
      "##lak": 544,
      "dadar": 545,
      "seblak": 546,
      "kat": 547,
      "coff": 548,
      "chocol": 549,
      "##wan": 550,
      "kwet": 551,
      "##og": 552,
      "kweti": 553,
      "chocolat": 554,
      "bakwan": 555,
      "bl": 556,
      "kwetiau": 557,
      "say": 558,
      "##mpel": 559,
      "##omay": 560,
      "sayur": 561,
      "##umi": 562,
      "siomay": 563,
      "saos": 564,
      "tt": 565,
      "pis": 566,
      "cap": 567,
      "smo": 568,
      "ttl": 569,
      "##seng": 570,
      "jer": 571,
      "##ium": 572,
      "##engseng": 573,
      "krengseng": 574,
      "krengsengan": 575,
      "##tel": 576,
      "##ahan": 577,
      "buah": 578,
      "om": 579,
      "pop": 580,
      "choco": 581,
      "##ble": 582,
      "hi": 583,
      "kent": 584,
      "ar": 585,
      "hijau": 586,
      "fri": 587,
      "chocolate": 588,
      "##yap": 589,
      "##ila": 590,
      "##uu": 591,
      "dim": 592,
      "##sum": 593,
      "str": 594,
      "dimsum": 595,
      "al": 596,
      "ka": 597,
      "58": 598,
      "katsu": 599,
      "14": 600,
      "milk": 601,
      "##ou": 602,
      "thai": 603,
      "75": 604,
      "jeruk": 605,
      "rice": 606,
      "straw": 607,
      "68": 608,
      "ot": 609,
      "ker": 610,
      "strawberry": 611,
      "71": 612,
      "72": 613,
      "69": 614,
      "pr": 615,
      "70": 616,
      "##ss": 617,
      "ban": 618,
      "gurame": 619,
      "##angi": 620,
      "24": 621,
      "53": 622,
      "61": 623,
      "coffee": 624,
      "67": 625,
      "73": 626,
      "66": 627,
      "48": 628,
      "50": 629,
      "##to": 630,
      "64": 631,
      "62": 632,
      "60": 633,
      "47": 634,
      "##end": 635,
      "33": 636,
      "banana": 637,
      "27": 638,
      "42": 639,
      "37": 640,
      "15": 641,
      "20": 642,
      "##ci": 643,
      "tiram": 644,
      "65": 645,
      "21": 646,
      "74": 647,
      "##aper": 648,
      "57": 649,
      "39": 650,
      "kecap": 651,
      "##eam": 652,
      "52": 653,
      "17": 654,
      "##ino": 655,
      "28": 656,
      "26": 657,
      "51": 658,
      "54": 659,
      "cream": 660,
      "29": 661,
      "##ake": 662,
      "56": 663,
      "45": 664,
      "19": 665,
      "31": 666,
      "55": 667,
      "kentang": 668,
      "40": 669,
      "hrg": 670,
      "43": 671,
      "18": 672,
      "63": 673,
      "59": 674,
      "##cial": 675,
      "30": 676,
      "41": 677,
      "##ler": 678,
      "special": 679,
      "##otak": 680,
      "25": 681,
      "##asa": 682,
      "32": 683,
      "omahan": 684,
      "36": 685,
      "46": 686,
      "smoot": 687,
      "##emek": 688,
      "34": 689,
      "44": 690,
      "cumi": 691,
      "kotak": 692,
      "##st": 693,
      "22": 694,
      "pisang": 695,
      "cin": 696,
      "##andan": 697,
      "##age": 698,
      "35": 699,
      "regu": 700,
      "##emes": 701,
      "16": 702,
      "##gi": 703,
      "38": 704,
      "ati": 705,
      "cinc": 706,
      "##ingin": 707,
      "dingin": 708,
      "gar": 709,
      "##mbu": 710,
      "49": 711,
      "pl": 712,
      "##ara": 713,
      "##sit": 714,
      "aren": 715,
      "23": 716,
      "ny": 717,
      "##ping": 718,
      "pangsit": 719,
      "dou": 720,
      "##mb": 721,
      "plus": 722,
      "##ki": 723,
      "ifum": 724,
      "double": 725,
      "ifumie": 726,
      "djo": 727,
      "##edes": 728,
      "djoedes": 729,
      "##ast": 730,
      "mad": 731,
      "##otong": 732,
      "##ero": 733,
      "bi": 734,
      "##co": 735,
      "kari": 736,
      "##sin": 737,
      "##itam": 738,
      "hitam": 739,
      "ly": 740,
      "lych": 741,
      "##oss": 742,
      "lychee": 743,
      "##da": 744,
      "##za": 745,
      "aci": 746,
      "cabe": 747,
      "asin": 748,
      "##ith": 749,
      "##ucino": 750,
      "with": 751,
      "sem": 752,
      "##li": 753,
      "##hies": 754,
      "smoothies": 755,
      "nila": 756,
      "guri": 757,
      "hrgny": 758,
      "ram": 759,
      "sambel": 760,
      "kamp": 761,
      "raw": 762,
      "ha": 763,
      "##iland": 764,
      "thailand": 765,
      "bet": 766,
      "##ado": 767,
      "spag": 768,
      "lad": 769,
      "kampung": 770,
      "##het": 771,
      "spaghet": 772,
      "put": 773,
      "##old": 774,
      "##ozen": 775,
      "frozen": 776,
      "##ter": 777,
      "putih": 778,
      "##bq": 779,
      "blackp": 780,
      "bbq": 781,
      "mu": 782,
      "##nut": 783,
      "biasa": 784,
      "##zel": 785,
      "pandan": 786,
      "##bab": 787,
      "topping": 788,
      "hazel": 789,
      "##hun": 790,
      "kebab": 791,
      "rbu": 792,
      "miehun": 793,
      "##mpela": 794,
      "ampela": 795,
      "sh": 796,
      "##qu": 797,
      "mayo": 798,
      "##stim": 799,
      "istim": 800,
      "istimewa": 801,
      "##bakso": 802,
      "pep": 803,
      "cheesy": 804,
      "wed": 805,
      "blackpaper": 806,
      "larg": 807,
      "##ore": 808,
      "large": 809,
      "nyemek": 810,
      "##gang": 811,
      "wedang": 812,
      "cur": 813,
      "panggang": 814,
      "pepper": 815,
      "##orn": 816,
      "curry": 817,
      "fries": 818,
      "mini": 819,
      "la": 820,
      "##omp": 821,
      "nyayap": 822,
      "bakmie": 823,
      "med": 824,
      "##ro": 825,
      "tep": 826,
      "kebu": 827,
      "tepung": 828,
      "kebuli": 829,
      "kep": 830,
      "gurih": 831,
      "bento": 832,
      "kremes": 833,
      "##boyo": 834,
      "jag": 835,
      "##tra": 836,
      "jagung": 837,
      "##emium": 838,
      "premium": 839,
      "remp": 840,
      "##iting": 841,
      "kepiting": 842,
      "ex": 843,
      "panas": 844,
      "cincau": 845,
      "rempah": 846,
      "extra": 847,
      "bakmi": 848,
      "##va": 849,
      "##nasi": 850,
      "kri": 851,
      "##teh": 852,
      "##tea": 853,
      "bumbu": 854,
      "capp": 855,
      "##ice": 856,
      "##antea": 857,
      "menantea": 858,
      "hazelnut": 859,
      "ur": 860,
      "##ilan": 861,
      "##ning": 862,
      "kuning": 863,
      "tarik": 864,
      "urat": 865,
      "terong": 866,
      "cek": 867,
      "ceker": 868,
      "otak": 869,
      "st": 870,
      "##ella": 871,
      "##telor": 872,
      "##nk": 873,
      "ser": 874,
      "mang": 875,
      "non": 876,
      "ham": 877,
      "nd": 878,
      "par": 879,
      "##zza": 880,
      "mente": 881,
      "##ia": 882,
      "pizza": 883,
      "##ob": 884,
      "##angat": 885,
      "cake": 886,
      "hangat": 887,
      "ja": 888,
      "bab": 889,
      "super": 890,
      "##ant": 891,
      "##all": 892,
      "##arella": 893,
      "ek": 894,
      "reguler": 895,
      "jawa": 896,
      "to": 897,
      "sek": 898,
      "komp": 899,
      "milo": 900,
      "komplit": 901,
      "##ey": 902,
      "rawon": 903,
      "gob": 904,
      "goby": 905,
      "##icy": 906,
      "spicy": 907,
      "gobyoss": 908,
      "pecak": 909,
      "red": 910,
      "mozarella": 911,
      "##nt": 912,
      "##ku": 913,
      "##ump": 914,
      "##mond": 915,
      "almond": 916,
      "##rs": 917,
      "baso": 918,
      "##lic": 919,
      "##gar": 920,
      "cao": 921,
      "don": 922,
      "##mer": 923,
      "garlic": 924,
      "##ked": 925,
      "mel": 926,
      "sugar": 927,
      "brown": 928,
      "coc": 929,
      "toping": 930,
      "small": 931,
      "cappucino": 932,
      "tan": 933,
      "fren": 934,
      "ramen": 935,
      "french": 936,
      "ud": 937,
      "##vet": 938,
      "car": 939,
      "pah": 940,
      "mes": 941,
      "##ont": 942,
      "melon": 943,
      "jel": 944,
      "wong": 945,
      "kue": 946,
      "soero": 947,
      "##pao": 948,
      "soeroboyo": 949,
      "bakpao": 950,
      "jambu": 951,
      "meses": 952,
      "##wir": 953,
      "tiaw": 954,
      "medium": 955,
      "vel": 956,
      "##ai": 957,
      "##omb": 958,
      "spaghetti": 959,
      "velvet": 960,
      "##ip": 961,
      "##amb": 962,
      "paha": 963,
      "rempel": 964,
      "rempelo": 965,
      "##utu": 966,
      "iced": 967,
      "matah": 968,
      "kore": 969,
      "##yang": 970,
      "band": 971,
      "panc": 972,
      "##giri": 973,
      "betutu": 974,
      "no": 975,
      "perked": 976,
      "##amel": 977,
      "korean": 978,
      "perkedel": 979,
      "uduk": 980,
      "mix": 981,
      "##gan": 982,
      "sel": 983,
      "##elur": 984,
      "nyam": 985,
      "caramel": 986,
      "pete": 987,
      "ol": 988,
      "##gor": 989,
      "ju": 990,
      "##let": 991,
      "pancong": 992,
      "##ina": 993,
      "gulai": 994,
      "juice": 995,
      "lim": 996,
      "##buri": 997,
      "bayam": 998,
      "##sus": 999,
      "lava": 1000,
      "##eer": 1001,
      "and": 1002,
      "lada": 1003,
      "donburi": 1004,
      "fe": 1005,
      "duo": 1006,
      "feast": 1007,
      "krispy": 1008,
      "cil": 1009,
      "kal": 1010,
      "jah": 1011,
      "timb": 1012,
      "jahe": 1013,
      "timbel": 1014,
      "cilok": 1015,
      "dri": 1016,
      "yak": 1017,
      "bal": 1018,
      "ras": 1019,
      "##con": 1020,
      "potong": 1021,
      "drink": 1022,
      "coto": 1023,
      "kar": 1024,
      "##rr": 1025,
      "##asari": 1026,
      "##oweer": 1027,
      "ndoweer": 1028,
      "limasari": 1029,
      "ndoweerrr": 1030,
      "sausage": 1031,
      "##oy": 1032,
      "sereh": 1033,
      "kailan": 1034,
      "mam": 1035,
      "##ab": 1036,
      "##cang": 1037,
      "mentega": 1038,
      "sate": 1039,
      "kacang": 1040,
      "##iwang": 1041,
      "mercon": 1042,
      "##rap": 1043,
      "##elat": 1044,
      "##unch": 1045,
      "wangi": 1046,
      "sad": 1047,
      "kon": 1048,
      "sal": 1049,
      "sadis": 1050,
      "lo": 1051,
      "cold": 1052,
      "cokelat": 1053,
      "dg": 1054,
      "##eys": 1055,
      "crunch": 1056,
      "pol": 1057,
      "sar": 1058,
      "##nal": 1059,
      "bail": 1060,
      "baileys": 1061,
      "esteh": 1062,
      "perso": 1063,
      "otot": 1064,
      "personal": 1065,
      "##eo": 1066,
      "ren": 1067,
      "##angk": 1068,
      "rendang": 1069,
      "crunchy": 1070,
      "oreo": 1071,
      "bun": 1072,
      "##ican": 1073,
      "madu": 1074,
      "amer": 1075,
      "siram": 1076,
      "american": 1077,
      "plat": 1078,
      "duri": 1079,
      "box": 1080,
      "durian": 1081,
      "##lok": 1082,
      "##eplok": 1083,
      "polos": 1084,
      "sarang": 1085,
      "##oll": 1086,
      "orang": 1087,
      "tek": 1088,
      "blu": 1089,
      "orange": 1090,
      "##okki": 1091,
      "rb": 1092,
      "god": 1093,
      "##ese": 1094,
      "##apan": 1095,
      "ab": 1096,
      "##kuah": 1097,
      "iris": 1098,
      "alp": 1099,
      "blend": 1100,
      "##argoreng": 1101,
      "bakargoreng": 1102,
      "roll": 1103,
      "##nc": 1104,
      "godog": 1105,
      "muja": 1106,
      "gorengkuah": 1107,
      "rebu": 1108,
      "##ili": 1109,
      "lam": 1110,
      "van": 1111,
      "51rb": 1112,
      "##angka": 1113,
      "ris": 1114,
      "##awar": 1115,
      "yamb": 1116,
      "yambok": 1117,
      "75k": 1118,
      "pel": 1119,
      "chili": 1120,
      "risol": 1121,
      "em": 1122,
      "tanpa": 1123,
      "me": 1124,
      "belut": 1125,
      "semangka": 1126,
      "paru": 1127,
      "##we": 1128,
      "pelangi": 1129,
      "japan": 1130,
      "cu": 1131,
      "70rb": 1132,
      "sekat": 1133,
      "crep": 1134,
      "mangga": 1135,
      "japanese": 1136,
      "tawar": 1137,
      "tak": 1138,
      "wh": 1139,
      "rbuan": 1140,
      "crepes": 1141,
      "68rb": 1142,
      "##weet": 1143,
      "hat": 1144,
      "##otelur": 1145,
      "ifomie": 1146,
      "67rb": 1147,
      "71rb": 1148,
      "cor": 1149,
      "gok": 1150,
      "##sotelur": 1151,
      "baksotelur": 1152,
      "rp65rb": 1153,
      "rp43rb": 1154,
      "av": 1155,
      "beran": 1156,
      "dol": 1157,
      "sweet": 1158,
      "##rang": 1159,
      "rp55rb": 1160,
      "rp71rb": 1161,
      "gokil": 1162,
      "beranak": 1163,
      "rp52rb": 1164,
      "##ocado": 1165,
      "rp64rb": 1166,
      "73rb": 1167,
      "bandung": 1168,
      "##ndog": 1169,
      "muda": 1170,
      "krim": 1171,
      "62rb": 1172,
      "69rb": 1173,
      "rp69rb": 1174,
      "rp57rb": 1175,
      "##les": 1176,
      "rp60rb": 1177,
      "avocado": 1178,
      "41k": 1179,
      "68k": 1180,
      "corndog": 1181,
      "rp73rb": 1182,
      "28rb": 1183,
      "##ader": 1184,
      "61rb": 1185,
      "wader": 1186,
      "##can": 1187,
      "##tar": 1188,
      "rp66rb": 1189,
      "##cking": 1190,
      "rp72rb": 1191,
      "dipa": 1192,
      "kecil": 1193,
      "dipacking": 1194,
      "42rb": 1195,
      "##jus": 1196,
      "rp30rb": 1197,
      "hokki": 1198,
      "pecal": 1199,
      "69k": 1200,
      "70k": 1201,
      "rp75rb": 1202,
      "35k": 1203,
      "55rb": 1204,
      "62k": 1205,
      "67k": 1206,
      "rp58rb": 1207,
      "65rb": 1208,
      "60rb": 1209,
      "toples": 1210,
      "rp63rb": 1211,
      "rp50rb": 1212,
      "rp3rb": 1213,
      "##aff": 1214,
      "40rb": 1215,
      "gold": 1216,
      "##rbe": 1217,
      "19rb": 1218,
      "24k": 1219,
      "54k": 1220,
      "9k": 1221,
      "##lar": 1222,
      "rp68rb": 1223,
      "rp70rb": 1224,
      "64rb": 1225,
      "72rb": 1226,
      "rp59rb": 1227,
      "regular": 1228,
      "14rb": 1229,
      "29rb": 1230,
      "27k": 1231,
      "48k": 1232,
      "49k": 1233,
      "jelet": 1234,
      "21rb": 1235,
      "31k": 1236,
      "42k": 1237,
      "rp18rb": 1238,
      "rp74rb": 1239,
      "golden": 1240,
      "jeletot": 1241,
      "8rb": 1242,
      "10rb": 1243,
      "rp21rb": 1244,
      "15k": 1245,
      "13k": 1246,
      "66k": 1247,
      "21k": 1248,
      "32rb": 1249,
      "74rb": 1250,
      "ve": 1251,
      "47rb": 1252,
      "44k": 1253,
      "##ffle": 1254,
      "46k": 1255,
      "52rb": 1256,
      "63rb": 1257,
      "rp32rb": 1258,
      "rp29rb": 1259,
      "35rb": 1260,
      "37rb": 1261,
      "11k": 1262,
      "38k": 1263,
      "37k": 1264,
      "45rb": 1265,
      "71k": 1266,
      "72k": 1267,
      "rp48rb": 1268,
      "29k": 1269,
      "rp37rb": 1270,
      "rp41rb": 1271,
      "22rb": 1272,
      "53k": 1273,
      "73k": 1274,
      "beng": 1275,
      "rp8rb": 1276,
      "16k": 1277,
      "60k": 1278,
      "rp61rb": 1279,
      "64k": 1280,
      "un": 1281,
      "waff": 1282,
      "rp46rb": 1283,
      "waffle": 1284,
      "47k": 1285,
      "57rb": 1286,
      "51k": 1287,
      "9rb": 1288,
      "##ce": 1289,
      "10k": 1290,
      "rp67rb": 1291,
      "rp53rb": 1292,
      "rp39rb": 1293,
      "rp40rb": 1294,
      "14k": 1295,
      "56k": 1296,
      "rp15rb": 1297,
      "rp14rb": 1298,
      "23k": 1299,
      "4k": 1300,
      "55k": 1301,
      "57k": 1302,
      "rp51rb": 1303,
      "13rb": 1304,
      "5k": 1305,
      "65k": 1306,
      "75rb": 1307,
      "rp38rb": 1308,
      "##endol": 1309,
      "blueb": 1310,
      "cendol": 1311,
      "rp31rb": 1312,
      "11rb": 1313,
      "31rb": 1314,
      "40k": 1315,
      "52k": 1316,
      "58k": 1317,
      "50k": 1318,
      "36k": 1319,
      "rp8": 1320,
      "rp5rb": 1321,
      "39rb": 1322,
      "##app": 1323,
      "##ite": 1324,
      "rp56rb": 1325,
      "rp34rb": 1326,
      "rp49rb": 1327,
      "toast": 1328,
      "17rb": 1329,
      "18k": 1330,
      "27rb": 1331,
      "50rb": 1332,
      "tr": 1333,
      "kuk": 1334,
      "##uuuu": 1335,
      "54rb": 1336,
      "fl": 1337,
      "##du": 1338,
      "rp42rb": 1339,
      "25k": 1340,
      "33rb": 1341,
      "49rb": 1342,
      "58rb": 1343,
      "##abu": 1344,
      "rp17rb": 1345,
      "moza": 1346,
      "kukus": 1347,
      "26rb": 1348,
      "45k": 1349,
      "rp12rb": 1350,
      "rp35rb": 1351,
      "rp33rb": 1352,
      "12rb": 1353,
      "38rb": 1354,
      "43rb": 1355,
      "7k": 1356,
      "##tai": 1357,
      "rp62rb": 1358,
      "rp36rb": 1359,
      "3k": 1360,
      "30rb": 1361,
      "5rb": 1362,
      "56rb": 1363,
      "cl": 1364,
      "rp11rb": 1365,
      "25rb": 1366,
      "33k": 1367,
      "43k": 1368,
      "4rb": 1369,
      "8k": 1370,
      "rp45rb": 1371,
      "rp47rb": 1372,
      "44rb": 1373,
      "sirs": 1374,
      "rp10rb": 1375,
      "rp24rb": 1376,
      "rp20rb": 1377,
      "66rb": 1378,
      "mentai": 1379,
      "veg": 1380,
      "15rb": 1381,
      "28k": 1382,
      "30k": 1383,
      "sup": 1384,
      "41rb": 1385,
      "61k": 1386,
      "59k": 1387,
      "rp19rb": 1388,
      "48rb": 1389,
      "##oyang": 1390,
      "rp54rb": 1391,
      "20rb": 1392,
      "##iun": 1393,
      "madiun": 1394,
      "seloyang": 1395,
      "3rb": 1396,
      "rp27rb": 1397,
      "6k": 1398,
      "rp9rb": 1399,
      "rp7rb": 1400,
      "rp28rb": 1401,
      "18rb": 1402,
      "squ": 1403,
      "##chi": 1404,
      "konro": 1405,
      "22k": 1406,
      "59rb": 1407,
      "##ich": 1408,
      "##ura": 1409,
      "prabu": 1410,
      "34rb": 1411,
      "34k": 1412,
      "rp13rb": 1413,
      "rp22rb": 1414,
      "17k": 1415,
      "53rb": 1416,
      "rp4rb": 1417,
      "vegas": 1418,
      "##oe": 1419,
      "24rb": 1420,
      "##ash": 1421,
      "rp44rb": 1422,
      "12k": 1423,
      "23rb": 1424,
      "36rb": 1425,
      "7rb": 1426,
      "##yung": 1427,
      "tom": 1428,
      "ment": 1429,
      "pecaknasi": 1430,
      "kaldu": 1431,
      "16rb": 1432,
      "rp16rb": 1433,
      "mozabakso": 1434,
      "39k": 1435,
      "##uffle": 1436,
      "26k": 1437,
      "mo": 1438,
      "63k": 1439,
      "##hm": 1440,
      "mangk": 1441,
      "##awi": 1442,
      "32k": 1443,
      "kit": 1444,
      "##ty": 1445,
      "##ver": 1446,
      "rp25rb": 1447,
      "rp23rb": 1448,
      "betawi": 1449,
      "nut": 1450,
      "rp26rb": 1451,
      "manyung": 1452,
      "truffle": 1453,
      "rp6rb": 1454,
      "pisah": 1455,
      "##que": 1456,
      "squash": 1457,
      "mol": 1458,
      "tau": 1459,
      "##asara": 1460,
      "mangkasara": 1461,
      "46rb": 1462,
      "capucino": 1463,
      "molen": 1464,
      "olah": 1465,
      "gurami": 1466,
      "sun": 1467,
      "india": 1468,
      "cana": 1469,
      "olahan": 1470,
      "canai": 1471,
      "ked": 1472,
      "##opang": 1473,
      "corn": 1474,
      "ropang": 1475,
      "6rb": 1476,
      "ok": 1477,
      "##ores": 1478,
      "rp9": 1479,
      "##oki": 1480,
      "sn": 1481,
      "19k": 1482,
      "suwir": 1483,
      "gem": 1484,
      "##ush": 1485,
      "dada": 1486,
      "##bk": 1487,
      "##ombo": 1488,
      "gy": 1489,
      "##nam": 1490,
      "##elai": 1491,
      "bubu": 1492,
      "fried": 1493,
      "kedelai": 1494,
      "tap": 1495,
      "##ori": 1496,
      "coffe": 1497,
      "cah": 1498,
      "tauco": 1499,
      "kuda": 1500,
      "20k": 1501,
      "bar": 1502,
      "mak": 1503,
      "##uce": 1504,
      "in": 1505,
      "sauce": 1506,
      "kerip": 1507,
      "keripik": 1508,
      "lont": 1509,
      "nm": 1510,
      "lontong": 1511,
      "ala": 1512,
      "mush": 1513,
      "##yum": 1514,
      "spaghetty": 1515,
      "##room": 1516,
      "tomyum": 1517,
      "snow": 1518,
      "bubur": 1519,
      "74k": 1520,
      "lod": 1521,
      "oni": 1522,
      "pesto": 1523,
      "lodeh": 1524,
      "nas": 1525,
      "tiramis": 1526,
      "mushroom": 1527,
      "##oza": 1528,
      "floss": 1529,
      "fla": 1530,
      "ra": 1531,
      "##ombin": 1532,
      "snowy": 1533,
      "##aap": 1534,
      "tip": 1535,
      "gyoza": 1536,
      "tiramisu": 1537,
      "dend": 1538,
      "kos": 1539,
      "gembu": 1540,
      "nasgor": 1541,
      "##ombinasi": 1542,
      "dendeng": 1543,
      "##ower": 1544,
      "tapi": 1545,
      "gembung": 1546,
      "flav": 1547,
      "wrap": 1548,
      "##ye": 1549,
      "shap": 1550,
      "onigiri": 1551,
      "combinasi": 1552,
      "li": 1553,
      "##telur": 1554,
      "plate": 1555,
      "blended": 1556,
      "clbk": 1557,
      "jep": 1558,
      "pas": 1559,
      "##ayam": 1560,
      "sayap": 1561,
      "mint": 1562,
      "kosong": 1563,
      "jepang": 1564,
      "balado": 1565,
      "##ker": 1566,
      "soy": 1567,
      "bebekayam": 1568,
      "##otan": 1569,
      "rm": 1570,
      "##ica": 1571,
      "paper": 1572,
      "##potong": 1573,
      "##oket": 1574,
      "rum": 1575,
      "kroket": 1576,
      "tipker": 1577,
      "##yeon": 1578,
      "##telurteh": 1579,
      "dower": 1580,
      "kering": 1581,
      "sil": 1582,
      "mig": 1583,
      "##ato": 1584,
      "##okah": 1585,
      "barokah": 1586,
      "ayamtelurteh": 1587,
      "##chicken": 1588,
      "mixed": 1589,
      "migotan": 1590,
      "gang": 1591,
      "kchicken": 1592,
      "kamb": 1593,
      "##tik": 1594,
      "##rip": 1595,
      "ekor": 1596,
      "gangnam": 1597,
      "kambing": 1598,
      "at": 1599,
      "ceplok": 1600,
      "tamb": 1601,
      "ramyeon": 1602,
      "mentok": 1603,
      "silver": 1604,
      "fil": 1605,
      "kis": 1606,
      "##up": 1607,
      "sing": 1608,
      "bub": 1609,
      "##uj": 1610,
      "bubble": 1611,
      "kel": 1612,
      "##arica": 1613,
      "bakarnasi": 1614,
      "ricarica": 1615,
      "gor": 1616,
      "pad": 1617,
      "babi": 1618,
      "fillet": 1619,
      "out": 1620,
      "blueband": 1621,
      "raja": 1622,
      "kol": 1623,
      "tal": 1624,
      "##fu": 1625,
      "chasi": 1626,
      "burs": 1627,
      "##ekele": 1628,
      "brekele": 1629,
      "bursay": 1630,
      "bistik": 1631,
      "karage": 1632,
      "pot": 1633,
      "xl": 1634,
      "matha": 1635,
      "shoy": 1636,
      "atas": 1637,
      "tambah": 1638,
      "shoyu": 1639,
      "ag": 1640,
      "of": 1641,
      "##mang": 1642,
      "##opa": 1643,
      "##illa": 1644,
      "sunti": 1645,
      "chasio": 1646,
      "cut": 1647,
      "copa": 1648,
      "teng": 1649,
      "##juk": 1650,
      "organ": 1651,
      "padang": 1652,
      "organik": 1653,
      "can": 1654,
      "dori": 1655,
      "##ger": 1656,
      "best": 1657,
      "semur": 1658,
      "gorang": 1659,
      "lina": 1660,
      "ruj": 1661,
      "##ian": 1662,
      "##reng": 1663,
      "##song": 1664,
      "mac": 1665,
      "simang": 1666,
      "##unsong": 1667,
      "rujak": 1668,
      "simangunsong": 1669,
      "md": 1670,
      "nyak": 1671,
      "##itin": 1672,
      "tenggiri": 1673,
      "nyakitin": 1674,
      "kl": 1675,
      "cooki": 1676,
      "##ontor": 1677,
      "cookies": 1678,
      "dj": 1679,
      "fir": 1680,
      "ngan": 1681,
      "##ling": 1682,
      "bled": 1683,
      "tofu": 1684,
      "petepotong": 1685,
      "mamba": 1686,
      "rumahan": 1687,
      "nganjuk": 1688,
      "cutlet": 1689,
      "djontor": 1690,
      "fire": 1691,
      "run": 1692,
      "##ex": 1693,
      "##corn": 1694,
      "siwir": 1695,
      "##apa": 1696,
      "##ester": 1697,
      "tiger": 1698,
      "mozz": 1699,
      "bledex": 1700,
      "kolester": 1701,
      "kolesterol": 1702,
      "ireng": 1703,
      "segar": 1704,
      "smoke": 1705,
      "liwet": 1706,
      "##epon": 1707,
      "tartar": 1708,
      "marina": 1709,
      "jamurtelor": 1710,
      "rawit": 1711,
      "strip": 1712,
      "vanilla": 1713,
      "potato": 1714,
      "cane": 1715,
      "tab": 1716,
      "kelapa": 1717,
      "##alik": 1718,
      "reog": 1719,
      "##ashi": 1720,
      "xiwang": 1721,
      "chee": 1722,
      "kembu": 1723,
      "cay": 1724,
      "abang": 1725,
      "tabalik": 1726,
      "kembung": 1727,
      "ge": 1728,
      "xo": 1729,
      "##mpor": 1730,
      "##edashi": 1731,
      "agedashi": 1732,
      "bara": 1733,
      "##ew": 1734,
      "klepon": 1735,
      "mek": 1736,
      "##lang": 1737,
      "##bai": 1738,
      "yaki": 1739,
      "mujaer": 1740,
      "hati": 1741,
      "kh": 1742,
      "na": 1743,
      "singap": 1744,
      "gempor": 1745,
      "##mi": 1746,
      "##urap": 1747,
      "nu": 1748,
      "##fc": 1749,
      "##ve": 1750,
      "marb": 1751,
      "gorengan": 1752,
      "salmon": 1753,
      "singapore": 1754,
      "##isa": 1755,
      "pecelurap": 1756,
      "cincang": 1757,
      "lamian": 1758,
      "meko": 1759,
      "otako": 1760,
      "basos": 1761,
      "kfc": 1762,
      "##tagor": 1763,
      "bir": 1764,
      "##tah": 1765,
      "mattah": 1766,
      "khas": 1767,
      "onc": 1768,
      "marble": 1769,
      "kara": 1770,
      "##man": 1771,
      "kem": 1772,
      "dolce": 1773,
      "karaage": 1774,
      "ski": 1775,
      "##ppy": 1776,
      "##eshi": 1777,
      "dubai": 1778,
      "##chees": 1779,
      "##risari": 1780,
      "##imeshi": 1781,
      "dagingtelor": 1782,
      "yakimeshi": 1783,
      "skippy": 1784,
      "##cheese": 1785,
      "keremes": 1786,
      "cabein": 1787,
      "nutrisari": 1788,
      "taliwang": 1789,
      "pu": 1790,
      "xx": 1791,
      "##sa": 1792,
      "chop": 1793,
      "recheese": 1794,
      "##ika": 1795,
      "##umpling": 1796,
      "naga": 1797,
      "xxl": 1798,
      "dumpling": 1799,
      "por": 1800,
      "##gget": 1801,
      "##ali": 1802,
      "soba": 1803,
      "semut": 1804,
      "cemek": 1805,
      "laos": 1806,
      "nugget": 1807,
      "##lung": 1808,
      "kecomb": 1809,
      "##giana": 1810,
      "parmi": 1811,
      "kecombrang": 1812,
      "parmigiana": 1813,
      "ita": 1814,
      "##onut": 1815,
      "##ewon": 1816,
      "itaewon": 1817,
      "arek": 1818,
      "ws": 1819,
      "mango": 1820,
      "coconut": 1821,
      "kemangi": 1822,
      "jombo": 1823,
      "pedesss": 1824,
      "mozzy": 1825,
      "cheecorn": 1826,
      "pedesssss": 1827,
      "tum": 1828,
      "##yani": 1829,
      "biryani": 1830,
      "buck": 1831,
      "love": 1832,
      "pork": 1833,
      "nag": 1834,
      "bucket": 1835,
      "onclang": 1836,
      "ap": 1837,
      "##gum": 1838,
      "mozza": 1839,
      "dja": 1840,
      "djawa": 1841,
      "usus": 1842,
      "##ukat": 1843,
      "sekali": 1844,
      "peras": 1845,
      "bubblegum": 1846,
      "nero": 1847,
      "##ly": 1848,
      "rp10": 1849,
      "alpukat": 1850,
      "tumis": 1851,
      "dog": 1852,
      "##tter": 1853,
      "##olong": 1854,
      "teman": 1855,
      "kroy": 1856,
      "medan": 1857,
      "kroyok": 1858,
      "rp11": 1859,
      "korn": 1860,
      "sta": 1861,
      "kornet": 1862,
      "oolong": 1863,
      "##ass": 1864,
      "##vv": 1865,
      "##jun": 1866,
      "seram": 1867,
      "bensu": 1868,
      "cajun": 1869,
      "##hip": 1870,
      "mevv": 1871,
      "mevvah": 1872,
      "hun": 1873,
      "whip": 1874,
      "##art": 1875,
      "##okat": 1876,
      "tako": 1877,
      "##zer": 1878,
      "an": 1879,
      "tu": 1880,
      "yu": 1881,
      "##otti": 1882,
      "takoyaki": 1883,
      "##bi": 1884,
      "pear": 1885,
      "panzer": 1886,
      "omu": 1887,
      "white": 1888,
      "panzerotti": 1889,
      "##oku": 1890,
      "lap": 1891,
      "bre": 1892,
      "pecaljus": 1893,
      "nok": 1894,
      "woku": 1895,
      "##pent": 1896,
      "beefpent": 1897,
      "beefpentol": 1898,
      "##goreng": 1899,
      "##wberry": 1900,
      "cube": 1901,
      "ran": 1902,
      "##res": 1903,
      "##yu": 1904,
      "##ma": 1905,
      "##men": 1906,
      "nyawang": 1907,
      "stawberry": 1908,
      "lapis": 1909,
      "##osi": 1910,
      "sed": 1911,
      "kunt": 1912,
      "##gian": 1913,
      "##ilanak": 1914,
      "kuntilanak": 1915,
      "##qisa": 1916,
      "mata": 1917,
      "gua": 1918,
      "marqisa": 1919,
      "stand": 1920,
      "karet": 1921,
      "ranjau": 1922,
      "##bing": 1923,
      "permen": 1924,
      "##uro": 1925,
      "alpokat": 1926,
      "emosi": 1927,
      "sedap": 1928,
      "##reb": 1929,
      "##sh": 1930,
      "gorengreb": 1931,
      "manja": 1932,
      "##antar": 1933,
      "guava": 1934,
      "standart": 1935,
      "gorengrebus": 1936,
      "berry": 1937,
      "siantar": 1938,
      "##cok": 1939,
      "miram": 1940,
      "##ade": 1941,
      "##eka": 1942,
      "embe": 1943,
      "miramar": 1944,
      "hau": 1945,
      "##cumi": 1946,
      "bagian": 1947,
      "##onom": 1948,
      "kuahgoreng": 1949,
      "balap": 1950,
      "apel": 1951,
      "pek": 1952,
      "##etahu": 1953,
      "##temp": 1954,
      "udangcumi": 1955,
      "##upuk": 1956,
      "suro": 1957,
      "pent": 1958,
      "sucok": 1959,
      "aneka": 1960,
      "##resso": 1961,
      "##tempetahu": 1962,
      "pentol": 1963,
      "dp": 1964,
      "##atan": 1965,
      "telortempetahu": 1966,
      "kane": 1967,
      "##rapatan": 1968,
      "loaf": 1969,
      "peking": 1970,
      "dprapatan": 1971,
      "lar": 1972,
      "rasa": 1973,
      "wor": 1974,
      "singk": 1975,
      "jelly": 1976,
      "bread": 1977,
      "suroboyo": 1978,
      "sk": 1979,
      "##eek": 1980,
      "bas": 1981,
      "ekonom": 1982,
      "irish": 1983,
      "larut": 1984,
      "ekonomis": 1985,
      "bangk": 1986,
      "gareng": 1987,
      "singkong": 1988,
      "pen": 1989,
      "kok": 1990,
      "##fil": 1991,
      "barbe": 1992,
      "##nie": 1993,
      "teller": 1994,
      "tareek": 1995,
      "wortel": 1996,
      "ta": 1997,
      "tun": 1998,
      "##go": 1999,
      "##gg": 2000,
      "##but": 2001,
      "goldenfil": 2002,
      "unnie": 2003,
      "barbeque": 2004,
      "ck": 2005,
      "##eds": 2006,
      "##chen": 2007,
      "sugu": 2008,
      "kitchen": 2009,
      "ahm": 2010,
      "##presso": 2011,
      "##imbing": 2012,
      "sucha": 2013,
      "bangkit": 2014,
      "ahmeds": 2015,
      "daw": 2016,
      "suler": 2017,
      "kerupuk": 2018,
      "hokkian": 2019,
      "##shake": 2020,
      "kokopi": 2021,
      "tuna": 2022,
      "dawet": 2023,
      "egg": 2024,
      "jamet": 2025,
      "ifu": 2026,
      "lades": 2027,
      "cer": 2028,
      "kur": 2029,
      "lump": 2030,
      "##br": 2031,
      "##imut": 2032,
      "belimbing": 2033,
      "selimut": 2034,
      "hokkien": 2035,
      "##engk": 2036,
      "boos": 2037,
      "basah": 2038,
      "sushi": 2039,
      "lemonade": 2040,
      "kribo": 2041,
      "##sang": 2042,
      "kaki": 2043,
      "kabut": 2044,
      "booster": 2045,
      "mal": 2046,
      "sant": 2047,
      "##acan": 2048,
      "##arta": 2049,
      "udangtelor": 2050,
      "belacan": 2051,
      "milkshake": 2052,
      "jak": 2053,
      "##ban": 2054,
      "asap": 2055,
      "kental": 2056,
      "makass": 2057,
      "doger": 2058,
      "tubr": 2059,
      "lumpsang": 2060,
      "jakarta": 2061,
      "makassar": 2062,
      "tubruk": 2063,
      "bit": 2064,
      "kop": 2065,
      "##oot": 2066,
      "bada": 2067,
      "##cy": 2068,
      "pk": 2069,
      "##food": 2070,
      "##deng": 2071,
      "sifood": 2072,
      "##opandan": 2073,
      "popcan": 2074,
      "cocopandan": 2075,
      "penang": 2076,
      "lum": 2077,
      "##ding": 2078,
      "##jan": 2079,
      "espresso": 2080,
      "##uit": 2081,
      "ayambakso": 2082,
      "bola": 2083,
      "marjan": 2084,
      "santap": 2085,
      "bites": 2086,
      "pkt": 2087,
      "##ala": 2088,
      "shoot": 2089,
      "##antan": 2090,
      "lengk": 2091,
      "tor": 2092,
      "chocolatos": 2093,
      "sirsat": 2094,
      "kurma": 2095,
      "badai": 2096,
      "penc": 2097,
      "arbe": 2098,
      "hal": 2099,
      "##ini": 2100,
      "pink": 2101,
      "setan": 2102,
      "tersa": 2103,
      "fres": 2104,
      "arang": 2105,
      "arbei": 2106,
      "tersayang": 2107,
      "##yor": 2108,
      "buco": 2109,
      "lecy": 2110,
      "babat": 2111,
      "pencit": 2112,
      "##ole": 2113,
      "##imantan": 2114,
      "kalimantan": 2115,
      "kopyor": 2116,
      "lengkap": 2117,
      "mujair": 2118,
      "##arga": 2119,
      "cokban": 2120,
      "babeh": 2121,
      "americano": 2122,
      "cip": 2123,
      "##uyu": 2124,
      "##ongan": 2125,
      "##ehot": 2126,
      "icehot": 2127,
      "fruit": 2128,
      "whole": 2129,
      "nh": 2130,
      "##gur": 2131,
      "frapp": 2132,
      "abon": 2133,
      "skim": 2134,
      "malang": 2135,
      "nharga": 2136,
      "tump": 2137,
      "##alem": 2138,
      "anggur": 2139,
      "milky": 2140,
      "stik": 2141,
      "##abika": 2142,
      "saluyu": 2143,
      "##ichan": 2144,
      "taichan": 2145,
      "tumpeng": 2146,
      "kim": 2147,
      "##ceplok": 2148,
      "##ond": 2149,
      "dadarceplok": 2150,
      "##bas": 2151,
      "ceria": 2152,
      "torabika": 2153,
      "##bs": 2154,
      "##pia": 2155,
      "gartu": 2156,
      "##coff": 2157,
      "tanah": 2158,
      "lamongan": 2159,
      "##ben": 2160,
      "##kulit": 2161,
      "sotong": 2162,
      "##elin": 2163,
      "ayamkulit": 2164,
      "##sosis": 2165,
      "kuini": 2166,
      "##ebelin": 2167,
      "smores": 2168,
      "nyebelin": 2169,
      "mocha": 2170,
      "pentolbakso": 2171,
      "caf": 2172,
      "lot": 2173,
      "puc": 2174,
      "sand": 2175,
      "tst": 2176,
      "biscoff": 2177,
      "kecomp": 2178,
      "potongan": 2179,
      "##rangjus": 2180,
      "lotus": 2181,
      "pucuk": 2182,
      "kecomprangjus": 2183,
      "sum": 2184,
      "##anti": 2185,
      "susanti": 2186,
      "ndalem": 2187,
      "sirsak": 2188,
      "pat": 2189,
      "##ela": 2190,
      "terasi": 2191,
      "vanila": 2192,
      "oyak": 2193,
      "siia": 2194,
      "##tuk": 2195,
      "pakai": 2196,
      "##baso": 2197,
      "##benk": 2198,
      "siiaapp": 2199,
      "nus": 2200,
      "obenk": 2201,
      "##tut": 2202,
      "seblaksosis": 2203,
      "creamy": 2204,
      "buntut": 2205,
      "seblaksosisbaso": 2206,
      "song": 2207,
      "tet": 2208,
      "##angga": 2209,
      "##undeng": 2210,
      "book": 2211,
      "tetangga": 2212,
      "king": 2213,
      "##our": 2214,
      "##wich": 2215,
      "bulat": 2216,
      "hargs": 2217,
      "sulung": 2218,
      "serundeng": 2219,
      "platter": 2220,
      "sandwich": 2221,
      "oyakou": 2222,
      "pala": 2223,
      "lumpia": 2224,
      "kakap": 2225,
      "tempoe": 2226,
      "coco": 2227,
      "doloe": 2228,
      "##kado": 2229,
      "petr": 2230,
      "##esan": 2231,
      "lady": 2232,
      "ekkado": 2233,
      "frappe": 2234,
      "petruk": 2235,
      "suk": 2236,
      "##aberry": 2237,
      "bay": 2238,
      "##aaap": 2239,
      "siaaap": 2240,
      "##susu": 2241,
      "cuan": 2242,
      "untuk": 2243,
      "halus": 2244,
      "##est": 2245,
      "pud": 2246,
      "##cino": 2247,
      "mauuuuu": 2248,
      "nusaberry": 2249,
      "bayi": 2250,
      "pudding": 2251,
      "ga": 2252,
      "##cake": 2253,
      "##jero": 2254,
      "tebs": 2255,
      "strawberrysusu": 2256,
      "mudajero": 2257,
      "mudajeroan": 2258,
      "kas": 2259,
      "bur": 2260,
      "seger": 2261,
      "masak": 2262,
      "madura": 2263,
      "hatchi": 2264,
      "##oan": 2265,
      "##kn": 2266,
      "##era": 2267,
      "cuanki": 2268,
      "##dus": 2269,
      "##bawa": 2270,
      "flavour": 2271,
      "sumbawa": 2272,
      "flavoured": 2273,
      "kesan": 2274,
      "##enila": 2275,
      "kudus": 2276,
      "guramenila": 2277,
      "ichi": 2278,
      "ubi": 2279,
      "##yaap": 2280,
      "siyaap": 2281,
      "jeroan": 2282,
      "kriuk": 2283,
      "bandrek": 2284,
      "gal": 2285,
      "##ft": 2286,
      "pepa": 2287,
      "requ": 2288,
      "soes": 2289,
      "pepaya": 2290,
      "request": 2291,
      "sos": 2292,
      "##bal": 2293,
      "mininasi": 2294,
      "##utelur": 2295,
      "##susutelur": 2296,
      "bandreksusutelur": 2297,
      "##mis": 2298,
      "cheesecake": 2299,
      "creamer": 2300,
      "smooth": 2301,
      "##orest": 2302,
      "kismis": 2303,
      "ichigo": 2304,
      "siapp": 2305,
      "kentangbakso": 2306,
      "##onde": 2307,
      "##utera": 2308,
      "empela": 2309,
      "cappuc": 2310,
      "kondang": 2311,
      "kimura": 2312,
      "kasutera": 2313,
      "pastel": 2314,
      "sosro": 2315,
      "ci": 2316,
      "mur": 2317,
      "ronde": 2318,
      "ifumi": 2319,
      "##sss": 2320,
      "risoles": 2321,
      "galau": 2322,
      "cir": 2323,
      "##sir": 2324,
      "smoothie": 2325,
      "cappuccino": 2326,
      "siyap": 2327,
      "flavor": 2328,
      "siyaph": 2329,
      "##re": 2330,
      "##coan": 2331,
      "gacoan": 2332,
      "cireng": 2333,
      "##sion": 2334,
      "gepeng": 2335,
      "ciap": 2336,
      "79": 2337,
      "patin": 2338,
      "burnt": 2339,
      "rp12": 2340,
      "murmer": 2341,
      "siaap": 2342,
      "##boba": 2343,
      "soft": 2344,
      "81": 2345,
      "##apu": 2346,
      "capucinoboba": 2347,
      "##kat": 2348,
      "##ilk": 2349,
      "jambal": 2350,
      "sis": 2351,
      "##nian": 2352,
      "keki": 2353,
      "##tters": 2354,
      "gre": 2355,
      "green": 2356,
      "##araja": 2357,
      "##hmilk": 2358,
      "passion": 2359,
      "freshmilk": 2360,
      "sandwichice": 2361,
      "sukaraja": 2362,
      "kekinian": 2363,
      "100": 2364,
      "popping": 2365,
      "kerapu": 2366,
      "tok": 2367,
      "##oka": 2368,
      "kiss": 2369,
      "sistagor": 2370,
      "##hol": 2371,
      "##forest": 2372,
      "##jes": 2373,
      "blackforest": 2374,
      "ube": 2375,
      "alco": 2376,
      "alcohol": 2377,
      "mesir": 2378,
      "tokyo": 2379,
      "##som": 2380,
      "kitkat": 2381,
      "##ossom": 2382,
      "blossom": 2383,
      "fritters": 2384,
      "mambo": 2385,
      "shaps": 2386,
      "naget": 2387,
      "80": 2388,
      "mba": 2389,
      "menjes": 2390,
      "##queen": 2391,
      "83": 2392,
      "pemp": 2393,
      "silverqueen": 2394,
      "pempek": 2395,
      "85": 2396,
      "##itea": 2397,
      "thaitea": 2398,
      "##taro": 2399,
      "hamtaro": 2400,
      "soka": 2401,
      "##lnut": 2402,
      "batagor": 2403,
      "nadi": 2404,
      "uke": 2405,
      "hazellnut": 2406,
      "91": 2407,
      "oce": 2408,
      "84": 2409,
      "mauuu": 2410,
      "mao": 2411,
      "77": 2412,
      "89": 2413,
      "oc": 2414,
      "maau": 2415,
      "76": 2416,
      "okz": 2417,
      "78": 2418,
      "nagih": 2419,
      "96": 2420,
      "bolu": 2421,
      "82": 2422,
      "key": 2423,
      "noks": 2424,
      "sip": 2425,
      "86": 2426,
      "da": 2427,
      "noke": 2428,
      "bungk": 2429,
      "87": 2430,
      "88": 2431,
      "okeh": 2432,
      "nb": 2433,
      "qey": 2434,
      "##okok": 2435,
      "90": 2436,
      "okokok": 2437,
      "105": 2438,
      "92": 2439,
      "daun": 2440,
      "##ks": 2441,
      "93": 2442,
      "butter": 2443,
      "101": 2444,
      "98": 2445,
      "##ul": 2446,
      "103": 2447,
      "blueberry": 2448,
      "makn": 2449,
      "nmakan": 2450,
      "104": 2451,
      "cro": 2452,
      "97": 2453,
      "jal": 2454,
      "mkn": 2455,
      "mkan": 2456,
      "99": 2457,
      "95": 2458,
      "rp13": 2459,
      "111": 2460,
      "94": 2461,
      "##eli": 2462,
      "mamam": 2463,
      "102": 2464,
      "107": 2465,
      "113": 2466,
      "mintk": 2467,
      "combo": 2468,
      "##ish": 2469,
      "gulung": 2470,
      "##hu": 2471,
      "ms": 2472,
      "mskn": 2473,
      "may": 2474,
      "nbeli": 2475,
      "108": 2476,
      "manisss": 2477,
      "mni": 2478,
      "mnt": 2479,
      "jalok": 2480,
      "mnisss": 2481,
      "##nta": 2482,
      "110": 2483,
      "nmw": 2484,
      "115": 2485,
      "##ji": 2486,
      "maok": 2487,
      "mahu": 2488,
      "109": 2489,
      "106": 2490,
      "mbaa": 2491,
      "mnta": 2492,
      "brli": 2493,
      "bli": 2494,
      "##lo": 2495,
      "112": 2496,
      "ber": 2497,
      "pa": 2498,
      "116": 2499,
      "mauuuuuuu": 2500,
      "gel": 2501,
      "118": 2502,
      "sang": 2503,
      "maw": 2504,
      "##ine": 2505,
      "maoo": 2506,
      "gelem": 2507,
      "##jit": 2508,
      "114": 2509,
      "blue": 2510,
      "mentah": 2511,
      "mauuuuuu": 2512,
      "sl": 2513,
      "th": 2514,
      "nmaw": 2515,
      "mauuuu": 2516,
      "slice": 2517,
      "mai": 2518,
      "122": 2519,
      "nmo": 2520,
      "sanger": 2521,
      "##oni": 2522,
      "##gal": 2523,
      "mauu": 2524,
      "fish": 2525,
      "ket": 2526,
      "##ess": 2527,
      "arep": 2528,
      "mojit": 2529,
      "##ark": 2530,
      "bung": 2531,
      "nutella": 2532,
      "##iss": 2533,
      "regal": 2534,
      "119": 2535,
      "maauuu": 2536,
      "##assi": 2537,
      "mauk": 2538,
      "nmau": 2539,
      "83k": 2540,
      "##usss": 2541,
      "##ussss": 2542,
      "125": 2543,
      "##uuussss": 2544,
      "stick": 2545,
      "##uuuuuuuu": 2546,
      "classi": 2547,
      "fresh": 2548,
      "bungkuuussss": 2549,
      "bungkuuuuuuuu": 2550,
      "classic": 2551,
      "bungkuuuuuuuuusss": 2552,
      "91k": 2553,
      "mojito": 2554,
      "89rb": 2555,
      "##gus": 2556,
      "##oney": 2557,
      "126": 2558,
      "smoked": 2559,
      "82k": 2560,
      "bs": 2561,
      "chip": 2562,
      "##one": 2563,
      "117": 2564,
      "bks": 2565,
      "honey": 2566,
      "ki": 2567,
      "bisaa": 2568,
      "rp77rb": 2569,
      "131": 2570,
      "salad": 2571,
      "80rb": 2572,
      "bngk": 2573,
      "chik": 2574,
      "rp14": 2575,
      "128": 2576,
      "120": 2577,
      "##ull": 2578,
      "bngks": 2579,
      "79rb": 2580,
      "77rb": 2581,
      "79k": 2582,
      "80k": 2583,
      "ro": 2584,
      "##aas": 2585,
      "maaas": 2586,
      "chi": 2587,
      "127": 2588,
      "big": 2589,
      "rp87rb": 2590,
      "bunggus": 2591,
      "maaasss": 2592,
      "82rb": 2593,
      "full": 2594,
      "donat": 2595,
      "rp82rb": 2596,
      "croffle": 2597,
      "123": 2598,
      "121": 2599,
      "rp89rb": 2600,
      "76k": 2601,
      "94rb": 2602,
      "90rb": 2603,
      "##ach": 2604,
      "rp88rb": 2605,
      "mbaak": 2606,
      "pack": 2607,
      "78rb": 2608,
      "78k": 2609,
      "81k": 2610,
      "bgks": 2611,
      "rp78rb": 2612,
      "124": 2613,
      "rp80rb": 2614,
      "76rb": 2615,
      "96rb": 2616,
      "be": 2617,
      "kangk": 2618,
      "mm": 2619,
      "yog": 2620,
      "biji": 2621,
      "rp95rb": 2622,
      "rp94rb": 2623,
      "kangkung": 2624,
      "mmz": 2625,
      "97rb": 2626,
      "long": 2627,
      "manggo": 2628,
      "beras": 2629,
      "ketan": 2630,
      "87rb": 2631,
      "90k": 2632,
      "mb": 2633,
      "mw": 2634,
      "##urt": 2635,
      "shake": 2636,
      "rp85rb": 2637,
      "rp93rb": 2638,
      "88rb": 2639,
      "84k": 2640,
      "93rb": 2641,
      "bomb": 2642,
      "##rika": 2643,
      "soup": 2644,
      "donut": 2645,
      "cup": 2646,
      "rp81rb": 2647,
      "rp91rb": 2648,
      "the": 2649,
      "88k": 2650,
      "##der": 2651,
      "peach": 2652,
      "bag": 2653,
      "rp79rb": 2654,
      "rp84rb": 2655,
      "95rb": 2656,
      "##jang": 2657,
      "sir": 2658,
      "udon": 2659,
      "mamas": 2660,
      "flo": 2661,
      "rp92rb": 2662,
      "rp102rb": 2663,
      "croiss": 2664,
      "84rb": 2665,
      "86rb": 2666,
      "86k": 2667,
      "92rb": 2668,
      "qu": 2669,
      "##ple": 2670,
      "sela": 2671,
      "leg": 2672,
      "##epper": 2673,
      "##eme": 2674,
      "rp76rb": 2675,
      "130": 2676,
      "blackpepper": 2677,
      "croissant": 2678,
      "selai": 2679,
      "81rb": 2680,
      "95k": 2681,
      "92k": 2682,
      "97k": 2683,
      "dark": 2684,
      "isi": 2685,
      "maz": 2686,
      "##ert": 2687,
      "104k": 2688,
      "crab": 2689,
      "129": 2690,
      "100k": 2691,
      "float": 2692,
      "77k": 2693,
      "85rb": 2694,
      "83rb": 2695,
      "85k": 2696,
      "98rb": 2697,
      "93k": 2698,
      "94k": 2699,
      "96k": 2700,
      "bz": 2701,
      "nen": 2702,
      "##poki": 2703,
      "##wi": 2704,
      "104rb": 2705,
      "toppoki": 2706,
      "rp90rb": 2707,
      "rp114rb": 2708,
      "99rb": 2709,
      "ko": 2710,
      "mz": 2711,
      "nan": 2712,
      "baw": 2713,
      "103rb": 2714,
      "102rb": 2715,
      "109rb": 2716,
      "109k": 2717,
      "massss": 2718,
      "133": 2719,
      "134": 2720,
      "rp99rb": 2721,
      "cafe": 2722,
      "nenas": 2723,
      "wi": 2724,
      "##ze": 2725,
      "103k": 2726,
      "##ona": 2727,
      "132": 2728,
      "rp98rb": 2729,
      "##rikaya": 2730,
      "91rb": 2731,
      "iso": 2732,
      "srikaya": 2733,
      "##na": 2734,
      "##anut": 2735,
      "102k": 2736,
      "115rb": 2737,
      "137": 2738,
      "135": 2739,
      "rp83rb": 2740,
      "puding": 2741,
      "87k": 2742,
      "ce": 2743,
      "fu": 2744,
      "oat": 2745,
      "peanut": 2746,
      "101k": 2747,
      "leci": 2748,
      "bisya": 2749,
      "115k": 2750,
      "kwetiaw": 2751,
      "capc": 2752,
      "popcorn": 2753,
      "kerang": 2754,
      "rp103rb": 2755,
      "rp109rb": 2756,
      "##loin": 2757,
      "99k": 2758,
      "dess": 2759,
      "tam": 2760,
      "##och": 2761,
      "##zu": 2762,
      "bul": 2763,
      "101rb": 2764,
      "108k": 2765,
      "##ock": 2766,
      "sob": 2767,
      "116rb": 2768,
      "138": 2769,
      "136": 2770,
      "rp107rb": 2771,
      "rp106rb": 2772,
      "rp111rb": 2773,
      "chiken": 2774,
      "yogurt": 2775,
      "dessert": 2776,
      "isa": 2777,
      "jas": 2778,
      "##ery": 2779,
      "106k": 2780,
      "110k": 2781,
      "baby": 2782,
      "lime": 2783,
      "rp86rb": 2784,
      "rp101rb": 2785,
      "100rb": 2786,
      "nbisa": 2787,
      "legit": 2788,
      "wij": 2789,
      "amb": 2790,
      "ri": 2791,
      "##gh": 2792,
      "##oro": 2793,
      "##iku": 2794,
      "105k": 2795,
      "pin": 2796,
      "111rb": 2797,
      "119k": 2798,
      "meal": 2799,
      "rp112rb": 2800,
      "nanas": 2801,
      "ceu": 2802,
      "bsa": 2803,
      "bika": 2804,
      "col": 2805,
      "ho": 2806,
      "##ge": 2807,
      "##ra": 2808,
      "##ud": 2809,
      "##ory": 2810,
      "sabi": 2811,
      "##ers": 2812,
      "##icha": 2813,
      "##ame": 2814,
      "105rb": 2815,
      "##oda": 2816,
      "113k": 2817,
      "121k": 2818,
      "bluder": 2819,
      "rp97rb": 2820,
      "rp96rb": 2821,
      "single": 2822,
      "mozzarella": 2823,
      "rp110rb": 2824,
      "bombol": 2825,
      "capcay": 2826,
      "odeng": 2827,
      "soda": 2828,
      "tart": 2829,
      "mozar": 2830,
      "##lio": 2831,
      "meat": 2832,
      "rp108rb": 2833,
      "rp117rb": 2834,
      "mbaaa": 2835,
      "mbaaass": 2836,
      "ambon": 2837,
      "98k": 2838,
      "bos": 2839,
      "rai": 2840,
      "tte": 2841,
      "tori": 2842,
      "##wo": 2843,
      "##aline": 2844,
      "##ocok": 2845,
      "112rb": 2846,
      "116k": 2847,
      "rp113rb": 2848,
      "jasm": 2849,
      "raisin": 2850,
      "bot": 2851,
      "cal": 2852,
      "cim": 2853,
      "lu": 2854,
      "mc": 2855,
      "mbk": 2856,
      "##bar": 2857,
      "##00rb": 2858,
      "##burger": 2859,
      "##ette": 2860,
      "tim": 2861,
      "##ago": 2862,
      "rp100rb": 2863,
      "praline": 2864,
      "skin": 2865,
      "lumer": 2866,
      "rp123rb": 2867,
      "chips": 2868,
      "sobek": 2869,
      "ball": 2870,
      "dal": 2871,
      "kocok": 2872,
      "sc": 2873,
      "sari": 2874,
      "##bokki": 2875,
      "##okk": 2876,
      "##iniku": 2877,
      "##ffon": 2878,
      "125k": 2879,
      "139": 2880,
      "rp115rb": 2881,
      "rp118rb": 2882,
      "chiffon": 2883,
      "wijen": 2884,
      "jasmine": 2885,
      "dr": 2886,
      "kap": 2887,
      "ros": 2888,
      "##tang": 2889,
      "##de": 2890,
      "##aroni": 2891,
      "##oco": 2892,
      "bolog": 2893,
      "114rb": 2894,
      "118rb": 2895,
      "118k": 2896,
      "120rb": 2897,
      "panjang": 2898,
      "rp104rb": 2899,
      "roast": 2900,
      "mbaakk": 2901,
      "89k": 2902,
      "del": 2903,
      "he": 2904,
      "on": 2905,
      "po": 2906,
      "wat": 2907,
      "##gog": 2908,
      "##ack": 2909,
      "##mel": 2910,
      "##tal": 2911,
      "ches": 2912,
      "##ise": 2913,
      "107k": 2914,
      "bob": 2915,
      "113rb": 2916,
      "111k": 2917,
      "112k": 2918,
      "114k": 2919,
      "121rb": 2920,
      "126rb": 2921,
      "biza": 2922,
      "carte": 2923,
      "yakiniku": 2924,
      "loyang": 2925,
      "trop": 2926,
      "talas": 2927,
      "apple": 2928,
      "bagel": 2929,
      "bawal": 2930,
      "bulgog": 2931,
      "water": 2932,
      "bulgogi": 2933,
      "de": 2934,
      "forest": 2935,
      "gum": 2936,
      "nbu": 2937,
      "trip": 2938,
      "##ll": 2939,
      "##bb": 2940,
      "##ball": 2941,
      "##do": 2942,
      "##aku": 2943,
      "##rbon": 2944,
      "##urai": 2945,
      "##iti": 2946,
      "kup": 2947,
      "brul": 2948,
      "cheeseburger": 2949,
      "carbon": 2950,
      "122rb": 2951,
      "141": 2952,
      "puff": 2953,
      "rp105rb": 2954,
      "rp119rb": 2955,
      "bisaaa": 2956,
      "dalg": 2957,
      "chesee": 2958,
      "tropic": 2959,
      "nbuah": 2960,
      "ebi": 2961,
      "past": 2962,
      "##cs": 2963,
      "##ton": 2964,
      "##dar": 2965,
      "##dog": 2966,
      "sagu": 2967,
      "char": 2968,
      "##iko": 2969,
      "##ati": 2970,
      "108rb": 2971,
      "pie": 2972,
      "##tail": 2973,
      "kani": 2974,
      "topokki": 2975,
      "119rb": 2976,
      "110rb": 2977,
      "117rb": 2978,
      "125rb": 2979,
      "126k": 2980,
      "##oge": 2981,
      "omel": 2982,
      "140": 2983,
      "cinnam": 2984,
      "lover": 2985,
      "puyu": 2986,
      "rp122rb": 2987,
      "bean": 2988,
      "mbg": 2989,
      "mozaru": 2990,
      "tropical": 2991,
      "pastry": 2992,
      "cinnamon": 2993,
      "cand": 2994,
      "gi": 2995,
      "hap": 2996,
      "ken": 2997,
      "nood": 2998,
      "pur": 2999,
      "##bow": 3000,
      "##zy": 3001,
      "##cur": 3002,
      "##se": 3003,
      "sawi": 3004,
      "bacon": 3005,
      "##oli": 3006,
      "##ate": 3007,
      "106rb": 3008,
      "spark": 3009,
      "hotdog": 3010,
      "maryam": 3011,
      "creme": 3012,
      "117k": 3013,
      "tempura": 3014,
      "128rb": 3015,
      "122k": 3016,
      "136k": 3017,
      "##dae": 3018,
      "otakotak": 3019,
      "makaroni": 3020,
      "rain": 3021,
      "lid": 3022,
      "rp116rb": 3023,
      "rp124rb": 3024,
      "bomboloni": 3025,
      "##melon": 3026,
      "triple": 3027,
      "carbonara": 3028,
      "dalgona": 3029,
      "puyuh": 3030,
      "happy": 3031,
      "air": 3032,
      "beer": 3033,
      "cak": 3034,
      "hom": 3035,
      "op": 3036,
      "pcs": 3037,
      "up": 3038,
      "wag": 3039,
      "##cis": 3040,
      "##day": 3041,
      "##jicha": 3042,
      "##alang": 3043,
      "##ongk": 3044,
      "##ata": 3045,
      "107rb": 3046,
      "##bay": 3047,
      "sour": 3048,
      "##ffin": 3049,
      "124k": 3050,
      "132rb": 3051,
      "130k": 3052,
      "##ender": 3053,
      "muffin": 3054,
      "polo": 3055,
      "tulang": 3056,
      "half": 3057,
      "rp129rb": 3058,
      "bologn": 3059,
      "rainbow": 3060,
      "wagyu": 3061,
      "ad": 3062,
      "furai": 3063,
      "gun": 3064,
      "gand": 3065,
      "hokk": 3066,
      "kw": 3067,
      "moc": 3068,
      "nast": 3069,
      "ocha": 3070,
      "qz": 3071,
      "tender": 3072,
      "vi": 3073,
      "##mak": 3074,
      "##don": 3075,
      "##ell": 3076,
      "mag": 3077,
      "chick": 3078,
      "##ola": 3079,
      "##velvet": 3080,
      "##chip": 3081,
      "crum": 3082,
      "120k": 3083,
      "tth": 3084,
      "arab": 3085,
      "kaya": 3086,
      "##qua": 3087,
      "redvelvet": 3088,
      "buncis": 3089,
      "mochi": 3090,
      "nutri": 3091,
      "snack": 3092,
      "oncom": 3093,
      "ceres": 3094,
      "rp121rb": 3095,
      "sirloin": 3096,
      "##ght": 3097,
      "brulee": 3098,
      "noodle": 3099,
      "hokkai": 3100,
      "nastar": 3101,
      "aqua": 3102,
      "bin": 3103,
      "dod": 3104,
      "fam": 3105,
      "nip": 3106,
      "##oeng": 3107,
      "##reme": 3108,
      "##ds": 3109,
      "##alapan": 3110,
      "##key": 3111,
      "##ily": 3112,
      "##ille": 3113,
      "##ost": 3114,
      "mant": 3115,
      "133rb": 3116,
      "131k": 3117,
      "143": 3118,
      "kampoeng": 3119,
      "vegan": 3120,
      "supreme": 3121,
      "##bingso": 3122,
      "rp126rb": 3123,
      "rp134rb": 3124,
      "bsb": 3125,
      "sirup": 3126,
      "tamago": 3127,
      "ribs": 3128,
      "meatball": 3129,
      "omelette": 3130,
      "sparkling": 3131,
      "cakalang": 3132,
      "hokkaido": 3133,
      "family": 3134,
      "nipis": 3135,
      "bite": 3136,
      "caff": 3137,
      "fan": 3138,
      "gen": 3139,
      "hamp": 3140,
      "pap": 3141,
      "tob": 3142,
      "vol": 3143,
      "##no": 3144,
      "##gil": 3145,
      "##hok": 3146,
      "##zone": 3147,
      "##ca": 3148,
      "##car": 3149,
      "##min": 3150,
      "##pberry": 3151,
      "##dak": 3152,
      "##vi": 3153,
      "##aka": 3154,
      "##eri": 3155,
      "sisir": 3156,
      "mis": 3157,
      "##esar": 3158,
      "samyang": 3159,
      "danish": 3160,
      "mand": 3161,
      "mark": 3162,
      "marmer": 3163,
      "##arian": 3164,
      "123k": 3165,
      "steam": 3166,
      "sambelan": 3167,
      "hain": 3168,
      "laut": 3169,
      "kepala": 3170,
      "raspberry": 3171,
      "##cano": 3172,
      "veget": 3173,
      "##apple": 3174,
      "break": 3175,
      "patbingso": 3176,
      "suka": 3177,
      "rp120rb": 3178,
      "rp127rb": 3179,
      "kiwi": 3180,
      "chizu": 3181,
      "bosgil": 3182,
      "roasted": 3183,
      "charco": 3184,
      "candy": 3185,
      "gift": 3186,
      "lidah": 3187,
      "bolognese": 3188,
      "tenderloin": 3189,
      "dodol": 3190,
      "en": 3191,
      "gan": 3192,
      "good": 3193,
      "hem": 3194,
      "kt": 3195,
      "kj": 3196,
      "lob": 3197,
      "pd": 3198,
      "pom": 3199,
      "ring": 3200,
      "tw": 3201,
      "vir": 3202,
      "wal": 3203,
      "##ne": 3204,
      "##aya": 3205,
      "##bis": 3206,
      "##bery": 3207,
      "##mu": 3208,
      "##fast": 3209,
      "##set": 3210,
      "##aken": 3211,
      "pet": 3212,
      "##ello": 3213,
      "sap": 3214,
      "saba": 3215,
      "cha": 3216,
      "##keju": 3217,
      "##nia": 3218,
      "##inger": 3219,
      "##ist": 3220,
      "##oklat": 3221,
      "miner": 3222,
      "##omi": 3223,
      "##box": 3224,
      "##ill": 3225,
      "##osa": 3226,
      "##eeze": 3227,
      "bolen": 3228,
      "emping": 3229,
      "129k": 3230,
      "135rb": 3231,
      "131rb": 3232,
      "132k": 3233,
      "137k": 3234,
      "strud": 3235,
      "145": 3236,
      "##ster": 3237,
      "shaken": 3238,
      "pepperoni": 3239,
      "bali": 3240,
      "kare": 3241,
      "sundae": 3242,
      "sunset": 3243,
      "tape": 3244,
      "maki": 3245,
      "tipis": 3246,
      "aglio": 3247,
      "rp125rb": 3248,
      "jalar": 3249,
      "roya": 3250,
      "donuth": 3251,
      "pine": 3252,
      "bothok": 3253,
      "calzone": 3254,
      "cimory": 3255,
      "opak": 3256,
      "add": 3257,
      "gunkan": 3258,
      "volcano": 3259,
      "markisa": 3260,
      "breakfast": 3261,
      "charcoal": 3262,
      "lobster": 3263,
      "pdng": 3264,
      "virgin": 3265,
      "basi": 3266,
      "for": 3267,
      "gad": 3268,
      "koro": 3269,
      "og": 3270,
      "olio": 3271,
      "punch": 3272,
      "pokat": 3273,
      "rab": 3274,
      "sak": 3275,
      "shi": 3276,
      "##lan": 3277,
      "##bon": 3278,
      "##zz": 3279,
      "##xe": 3280,
      "##uxe": 3281,
      "##th": 3282,
      "##stra": 3283,
      "##wak": 3284,
      "##buk": 3285,
      "chic": 3286,
      "##olo": 3287,
      "##ami": 3288,
      "tela": 3289,
      "pia": 3290,
      "lemp": 3291,
      "lemak": 3292,
      "spong": 3293,
      "##oci": 3294,
      "belly": 3295,
      "##anda": 3296,
      "blackcur": 3297,
      "##tir": 3298,
      "124rb": 3299,
      "129rb": 3300,
      "pansit": 3301,
      "chocochip": 3302,
      "144": 3303,
      "140rb": 3304,
      "spaget": 3305,
      "shawar": 3306,
      "krip": 3307,
      "tomyam": 3308,
      "moon": 3309,
      "tauge": 3310,
      "cheezy": 3311,
      "yuzu": 3312,
      "pearl": 3313,
      "frappucino": 3314,
      "cocoa": 3315,
      "rp130rb": 3316,
      "kids": 3317,
      "chiku": 3318,
      "bawah": 3319,
      "pindang": 3320,
      "tteok": 3321,
      "rose": 3322,
      "deluxe": 3323,
      "watermelon": 3324,
      "lovers": 3325,
      "crumble": 3326,
      "mandhi": 3327,
      "hemat": 3328,
      "sababay": 3329,
      "mineral": 3330,
      "royal": 3331,
      "pineapple": 3332,
      "blackcurr": 3333,
      "shawarma": 3334,
      "bic": 3335,
      "bri": 3336,
      "ble": 3337,
      "day": 3338,
      "gelat": 3339,
      "jado": 3340,
      "nak": 3341,
      "nes": 3342,
      "oy": 3343,
      "sy": 3344,
      "sor": 3345,
      "tn": 3346,
      "ton": 3347,
      "uk": 3348,
      "wis": 3349,
      "you": 3350,
      "##ean": 3351,
      "##her": 3352,
      "##hurt": 3353,
      "##bang": 3354,
      "##bim": 3355,
      "##ky": 3356,
      "##cot": 3357,
      "##ue": 3358,
      "##two": 3359,
      "##pan": 3360,
      "##je": 3361,
      "##jar": 3362,
      "##ora": 3363,
      "##are": 3364,
      "ched": 3365,
      "bat": 3366,
      "##uran": 3367,
      "reff": 3368,
      "##uka": 3369,
      "krupuk": 3370,
      "dip": 3371,
      "caesar": 3372,
      "panini": 3373,
      "138rb": 3374,
      "136rb": 3375,
      "134k": 3376,
      "blan": 3377,
      "147": 3378,
      "garam": 3379,
      "##mbang": 3380,
      "##umput": 3381,
      "##inawa": 3382,
      "##tard": 3383,
      "tomat": 3384,
      "okinawa": 3385,
      "pul": 3386,
      "kimchi": 3387,
      "patty": 3388,
      "rp131rb": 3389,
      "yoghurt": 3390,
      "magic": 3391,
      "caffe": 3392,
      "vegetarian": 3393,
      "tteokbokki": 3394,
      "bicopi": 3395,
      "jadoel": 3396,
      "ukuran": 3397,
      "wisman": 3398,
      "cheddar": 3399,
      "refftwo": 3400,
      "cad": 3401,
      "cla": 3402,
      "dabu": 3403,
      "dory": 3404,
      "el": 3405,
      "get": 3406,
      "gil": 3407,
      "goch": 3408,
      "ginger": 3409,
      "har": 3410,
      "ital": 3411,
      "je": 3412,
      "lil": 3413,
      "lip": 3414,
      "loco": 3415,
      "met": 3416,
      "mont": 3417,
      "moka": 3418,
      "pal": 3419,
      "rha": 3420,
      "rumput": 3421,
      "tb": 3422,
      "us": 3423,
      "zeb": 3424,
      "##eal": 3425,
      "##ket": 3426,
      "##iyaki": 3427,
      "##zo": 3428,
      "##xic": 3429,
      "##fr": 3430,
      "##ua": 3431,
      "##uan": 3432,
      "##uff": 3433,
      "##par": 3434,
      "##sian": 3435,
      "##ano": 3436,
      "ses": 3437,
      "##usse": 3438,
      "##bulan": 3439,
      "##etnam": 3440,
      "choch": 3441,
      "##icake": 3442,
      "butters": 3443,
      "baked": 3444,
      "##ada": 3445,
      "##ita": 3446,
      "##injo": 3447,
      "minicake": 3448,
      "tebal": 3449,
      "terang": 3450,
      "##ocean": 3451,
      "##cky": 3452,
      "##late": 3453,
      "134rb": 3454,
      "135k": 3455,
      "##sui": 3456,
      "chocolatea": 3457,
      "141rb": 3458,
      "bantal": 3459,
      "pepes": 3460,
      "bandeng": 3461,
      "pancake": 3462,
      "mousse": 3463,
      "nutela": 3464,
      "bubuk": 3465,
      "pasta": 3466,
      "mochacino": 3467,
      "rp133rb": 3468,
      "mayon": 3469,
      "##esse": 3470,
      "kibo": 3471,
      "hojicha": 3472,
      "timun": 3473,
      "kapsui": 3474,
      "kupas": 3475,
      "vietnam": 3476,
      "fanta": 3477,
      "hainan": 3478,
      "strudel": 3479,
      "lemper": 3480,
      "chikuwa": 3481,
      "gelato": 3482,
      "cadbu": 3483,
      "italian": 3484,
      "lipat": 3485,
      "zebra": 3486,
      "butterscot": 3487,
      "au": 3488,
      "amp": 3489,
      "aburi": 3490,
      "dom": 3491,
      "fet": 3492,
      "fun": 3493,
      "go": 3494,
      "gla": 3495,
      "is": 3496,
      "kot": 3497,
      "kor": 3498,
      "kes": 3499,
      "kam": 3500,
      "loc": 3501,
      "mon": 3502,
      "nangka": 3503,
      "ov": 3504,
      "pri": 3505,
      "pla": 3506,
      "rh": 3507,
      "rock": 3508,
      "ske": 3509,
      "tong": 3510,
      "tai": 3511,
      "toge": 3512,
      "var": 3513,
      "yum": 3514,
      "##land": 3515,
      "##ka": 3516,
      "##ii": 3517,
      "##roll": 3518,
      "##rup": 3519,
      "##yek": 3520,
      "##cem": 3521,
      "##mo": 3522,
      "##tle": 3523,
      "##pil": 3524,
      "##wers": 3525,
      "##aki": 3526,
      "peyek": 3527,
      "##ort": 3528,
      "yamin": 3529,
      "sen": 3530,
      "##ustard": 3531,
      "##erame": 3532,
      "##apper": 3533,
      "##aha": 3534,
      "miny": 3535,
      "miss": 3536,
      "##esadi": 3537,
      "bacem": 3538,
      "##asan": 3539,
      "##tul": 3540,
      "##opper": 3541,
      "##ity": 3542,
      "kembang": 3543,
      "##okie": 3544,
      "##okoli": 3545,
      "##agus": 3546,
      "##agon": 3547,
      "##boo": 3548,
      "##uki": 3549,
      "brew": 3550,
      "##rise": 3551,
      "##rispi": 3552,
      "spri": 3553,
      "spring": 3554,
      "hotbar": 3555,
      "##emade": 3556,
      "soju": 3557,
      "indone": 3558,
      "chococ": 3559,
      "aspar": 3560,
      "##pio": 3561,
      "crush": 3562,
      "cabai": 3563,
      "comp": 3564,
      "133k": 3565,
      "strob": 3566,
      "142": 3567,
      "##ough": 3568,
      "banjar": 3569,
      "ramerame": 3570,
      "urap": 3571,
      "parm": 3572,
      "##antara": 3573,
      "##allop": 3574,
      "melinjo": 3575,
      "coca": 3576,
      "pahit": 3577,
      "whopper": 3578,
      "fluff": 3579,
      "onion": 3580,
      "birth": 3581,
      "tumbuk": 3582,
      "taoge": 3583,
      "summer": 3584,
      "nusantara": 3585,
      "gayo": 3586,
      "burung": 3587,
      "rp135rb": 3588,
      "rp137rb": 3589,
      "rp136rb": 3590,
      "pao": 3591,
      "bunga": 3592,
      "rp140rb": 3593,
      "quesadi": 3594,
      "kohi": 3595,
      "fuyung": 3596,
      "##oche": 3597,
      "cola": 3598,
      "bombolone": 3599,
      "scallop": 3600,
      "dragon": 3601,
      "bobba": 3602,
      "homemade": 3603,
      "arabica": 3604,
      "bintang": 3605,
      "##mula": 3606,
      "basil": 3607,
      "rabokki": 3608,
      "kripik": 3609,
      "blackcurrant": 3610,
      "brioche": 3611,
      "tnp": 3612,
      "pulut": 3613,
      "rhabokki": 3614,
      "sesame": 3615,
      "terangbulan": 3616,
      "fettu": 3617,
      "rhum": 3618,
      "skewers": 3619,
      "minyak": 3620,
      "asparagus": 3621,
      "fluffy": 3622,
      "birthday": 3623,
      "bing": 3624,
      "bon": 3625,
      "bris": 3626,
      "deli": 3627,
      "fo": 3628,
      "gin": 3629,
      "heys": 3630,
      "ji": 3631,
      "jengk": 3632,
      "kik": 3633,
      "lok": 3634,
      "lalapan": 3635,
      "marg": 3636,
      "nori": 3637,
      "ox": 3638,
      "sw": 3639,
      "win": 3640,
      "##lus": 3641,
      "##oh": 3642,
      "##over": 3643,
      "##gn": 3644,
      "##hake": 3645,
      "##bet": 3646,
      "##io": 3647,
      "##cing": 3648,
      "##uck": 3649,
      "##den": 3650,
      "##wah": 3651,
      "##sia": 3652,
      "seh": 3653,
      "##rbang": 3654,
      "##usa": 3655,
      "##usuk": 3656,
      "##enger": 3657,
      "sio": 3658,
      "sin": 3659,
      "miso": 3660,
      "chris": 3661,
      "bund": 3662,
      "##rin": 3663,
      "##rimp": 3664,
      "##uren": 3665,
      "pill": 3666,
      "pipil": 3667,
      "kung": 3668,
      "##oma": 3669,
      "terbang": 3670,
      "##agi": 3671,
      "##ile": 3672,
      "bogor": 3673,
      "##tro": 3674,
      "cookie": 3675,
      "123rb": 3676,
      "128k": 3677,
      "139rb": 3678,
      "130rb": 3679,
      "138k": 3680,
      "139k": 3681,
      "ome": 3682,
      "frit": 3683,
      "all": 3684,
      "146": 3685,
      "141k": 3686,
      "milktea": 3687,
      "##oul": 3688,
      "strawbery": 3689,
      "##stick": 3690,
      "labu": 3691,
      "##oboki": 3692,
      "ekstra": 3693,
      "cordon": 3694,
      "gemb": 3695,
      "inari": 3696,
      "##ujang": 3697,
      "klenger": 3698,
      "halal": 3699,
      "kimboo": 3700,
      "##ondong": 3701,
      "##katsu": 3702,
      "rp139rb": 3703,
      "blueocean": 3704,
      "rp142rb": 3705,
      "tteoboki": 3706,
      "calam": 3707,
      "##ition": 3708,
      "kupie": 3709,
      "kenari": 3710,
      "gandum": 3711,
      "hampers": 3712,
      "tobler": 3713,
      "sapo": 3714,
      "syrup": 3715,
      "sorbet": 3716,
      "blanc": 3717,
      "giling": 3718,
      "gochujang": 3719,
      "lilin": 3720,
      "cadbury": 3721,
      "island": 3722,
      "monkey": 3723,
      "plain": 3724,
      "brisket": 3725,
      "heyshake": 3726,
      "jengkol": 3727,
      "kikil": 3728,
      "swiss": 3729,
      "ay": 3730,
      "bus": 3731,
      "cot": 3732,
      "custard": 3733,
      "dar": 3734,
      "duren": 3735,
      "eng": 3736,
      "fal": 3737,
      "fat": 3738,
      "gim": 3739,
      "hu": 3740,
      "han": 3741,
      "hou": 3742,
      "jan": 3743,
      "lay": 3744,
      "mut": 3745,
      "mod": 3746,
      "mock": 3747,
      "nong": 3748,
      "nou": 3749,
      "oseng": 3750,
      "pok": 3751,
      "pau": 3752,
      "poti": 3753,
      "poci": 3754,
      "san": 3755,
      "sch": 3756,
      "sura": 3757,
      "ts": 3758,
      "tik": 3759,
      "tri": 3760,
      "two": 3761,
      "uc": 3762,
      "val": 3763,
      "war": 3764,
      "wah": 3765,
      "##ea": 3766,
      "##lek": 3767,
      "##lla": 3768,
      "##lish": 3769,
      "##out": 3770,
      "##gat": 3771,
      "##hang": 3772,
      "##hon": 3773,
      "##ao": 3774,
      "##av": 3775,
      "##beng": 3776,
      "##ber": 3777,
      "##kong": 3778,
      "##rot": 3779,
      "##cter": 3780,
      "##fl": 3781,
      "##uh": 3782,
      "##ub": 3783,
      "##top": 3784,
      "##toro": 3785,
      "##dge": 3786,
      "##otle": 3787,
      "petir": 3788,
      "sea": 3789,
      "semp": 3790,
      "##rbar": 3791,
      "##use": 3792,
      "sau": 3793,
      "max": 3794,
      "machi": 3795,
      "chun": 3796,
      "chesse": 3797,
      "##icorn": 3798,
      "badak": 3799,
      "barbar": 3800,
      "##ries": 3801,
      "perpotong": 3802,
      "##urice": 3803,
      "##itr": 3804,
      "##itan": 3805,
      "##oko": 3806,
      "##inno": 3807,
      "##tain": 3808,
      "##boy": 3809,
      "##che": 3810,
      "bro": 3811,
      "breeze": 3812,
      "brokoli": 3813,
      "##utan": 3814,
      "spun": 3815,
      "##baya": 3816,
      "##awn": 3817,
      "brownis": 3818,
      "chocom": 3819,
      "cokju": 3820,
      "gude": 3821,
      "##hai": 3822,
      "asem": 3823,
      "asli": 3824,
      "cran": 3825,
      "127rb": 3826,
      "127k": 3827,
      "137rb": 3828,
      "##ogado": 3829,
      "omurice": 3830,
      "aloe": 3831,
      "ricebox": 3832,
      "otto": 3833,
      "prawn": 3834,
      "banroll": 3835,
      "##endar": 3836,
      "plum": 3837,
      "plant": 3838,
      "##aracter": 3839,
      "nyoklat": 3840,
      "rambut": 3841,
      "hawa": 3842,
      "putri": 3843,
      "blackpapper": 3844,
      "shot": 3845,
      "shrimp": 3846,
      "serut": 3847,
      "lamtoro": 3848,
      "unicorn": 3849,
      "moic": 3850,
      "sunrise": 3851,
      "gemuk": 3852,
      "inst": 3853,
      "kelepon": 3854,
      "tales": 3855,
      "purin": 3856,
      "##maicha": 3857,
      "penne": 3858,
      "badaii": 3859,
      "fruits": 3860,
      "kasar": 3861,
      "rp128rb": 3862,
      "octop": 3863,
      "rp143rb": 3864,
      "quat": 3865,
      "tamie": 3866,
      "boston": 3867,
      "bottle": 3868,
      "cimkong": 3869,
      "luwak": 3870,
      "lucky": 3871,
      "drum": 3872,
      "##itiaw": 3873,
      "pure": 3874,
      "purple": 3875,
      "home": 3876,
      "kwitiaw": 3877,
      "moctail": 3878,
      "mantap": 3879,
      "genmaicha": 3880,
      "sakura": 3881,
      "chicago": 3882,
      "sponge": 3883,
      "getuk": 3884,
      "tbtelor": 3885,
      "mayones": 3886,
      "butterscotch": 3887,
      "oval": 3888,
      "sprite": 3889,
      "parmesan": 3890,
      "kohike": 3891,
      "bingso": 3892,
      "winter": 3893,
      "christ": 3894,
      "toblerone": 3895,
      "busan": 3896,
      "english": 3897,
      "nongki": 3898,
      "nougat": 3899,
      "potion": 3900,
      "surabaya": 3901,
      "machiato": 3902,
      "ottoke": 3903,
      "rambutan": 3904,
      "octopus": 3905,
      "aff": 3906,
      "bk": 3907,
      "bek": 3908,
      "cam": 3909,
      "citr": 3910,
      "deng": 3911,
      "dara": 3912,
      "dres": 3913,
      "ed": 3914,
      "end": 3915,
      "fant": 3916,
      "gl": 3917,
      "gong": 3918,
      "gado": 3919,
      "gali": 3920,
      "hill": 3921,
      "jap": 3922,
      "jos": 3923,
      "joy": 3924,
      "ky": 3925,
      "kom": 3926,
      "kage": 3927,
      "kast": 3928,
      "kura": 3929,
      "krispi": 3930,
      "ling": 3931,
      "my": 3932,
      "nam": 3933,
      "obak": 3934,
      "oli": 3935,
      "ps": 3936,
      "pic": 3937,
      "pun": 3938,
      "pari": 3939,
      "palem": 3940,
      "qor": 3941,
      "slic": 3942,
      "soklat": 3943,
      "tah": 3944,
      "tabu": 3945,
      "tongk": 3946,
      "wont": 3947,
      "zeri": 3948,
      "##eg": 3949,
      "##lis": 3950,
      "##lem": 3951,
      "##oek": 3952,
      "##bel": 3953,
      "##kist": 3954,
      "##iri": 3955,
      "##ibi": 3956,
      "##yong": 3957,
      "##caf": 3958,
      "##cuit": 3959,
      "##mari": 3960,
      "##fe": 3961,
      "##fly": 3962,
      "##tong": 3963,
      "##pot": 3964,
      "##sap": 3965,
      "##sai": 3966,
      "##sman": 3967,
      "##saka": 3968,
      "##vano": 3969,
      "##jal": 3970,
      "##jer": 3971,
      "##akes": 3972,
      "##sio": 3973,
      "##sing": 3974,
      "##anyaki": 3975,
      "seas": 3976,
      "seoul": 3977,
      "##asin": 3978,
      "##enut": 3979,
      "##els": 3980,
      "##eleh": 3981,
      "##elover": 3982,
      "##arilla": 3983,
      "saik": 3984,
      "sawo": 3985,
      "##angang": 3986,
      "##api": 3987,
      "cham": 3988,
      "chur": 3989,
      "chat": 3990,
      "character": 3991,
      "##ict": 3992,
      "batu": 3993,
      "buble": 3994,
      "bakpia": 3995,
      "##adot": 3996,
      "danc": 3997,
      "##atw": 3998,
      "##atas": 3999,
      "baikut": 4000,
      "##gae": 4001,
      "##ekuk": 4002,
      "kuku": 4003,
      "angsio": 4004,
      "##chos": 4005,
      "##afel": 4006,
      "##ime": 4007,
      "##ima": 4008,
      "brownie": 4009,
      "belgian": 4010,
      "belanda": 4011,
      "biscuit": 4012,
      "mandu": 4013,
      "souffle": 4014,
      "##gul": 4015,
      "choclate": 4016,
      "##ebi": 4017,
      "##ebat": 4018,
      "gulo": 4019,
      "boy": 4020,
      "acar": 4021,
      "marie": 4022,
      "mend": 4023,
      "##ffee": 4024,
      "cai": 4025,
      "keci": 4026,
      "##suke": 4027,
      "chocolatte": 4028,
      "##ogato": 4029,
      "aroma": 4030,
      "strow": 4031,
      "146rb": 4032,
      "140k": 4033,
      "prun": 4034,
      "rame": 4035,
      "ramaya": 4036,
      "hai": 4037,
      "##olds": 4038,
      "muille": 4039,
      "short": 4040,
      "##oreo": 4041,
      "star": 4042,
      "parut": 4043,
      "java": 4044,
      "melati": 4045,
      "pahebat": 4046,
      "##aiii": 4047,
      "korea": 4048,
      "selar": 4049,
      "drip": 4050,
      "karamel": 4051,
      "sarsap": 4052,
      "mexic": 4053,
      "flap": 4054,
      "club": 4055,
      "squeeze": 4056,
      "square": 4057,
      "moun": 4058,
      "kedondong": 4059,
      "gyud": 4060,
      "talam": 4061,
      "strips": 4062,
      "cheezo": 4063,
      "nachos": 4064,
      "nuget": 4065,
      "badaaiii": 4066,
      "ocean": 4067,
      "mayona": 4068,
      "than": 4069,
      "cuplis": 4070,
      "legendar": 4071,
      "koon": 4072,
      "nanban": 4073,
      "fuille": 4074,
      "sobat": 4075,
      "wijsman": 4076,
      "house": 4077,
      "##ongkong": 4078,
      "moca": 4079,
      "hamper": 4080,
      "tobiko": 4081,
      "enoki": 4082,
      "ganyong": 4083,
      "gadogado": 4084,
      "shio": 4085,
      "bleu": 4086,
      "nescaf": 4087,
      "palm": 4088,
      "ampas": 4089,
      "glaze": 4090,
      "keset": 4091,
      "local": 4092,
      "fettuc": 4093,
      "delight": 4094,
      "ginjal": 4095,
      "jivano": 4096,
      "lokal": 4097,
      "##gnon": 4098,
      "sehat": 4099,
      "pillow": 4100,
      "##itional": 4101,
      "aykatsu": 4102,
      "falafel": 4103,
      "houjicha": 4104,
      "modanyaki": 4105,
      "ucapan": 4106,
      "wahaha": 4107,
      "quattro": 4108,
      "wintermelon": 4109,
      "affogato": 4110,
      "dengan": 4111,
      "dressing": 4112,
      "gongso": 4113,
      "psbb": 4114,
      "qorma": 4115,
      "tabur": 4116,
      "tongkol": 4117,
      "wonton": 4118,
      "##ibif": 4119,
      "saikoro": 4120,
      "ramayana": 4121,
      "mexico": 4122,
      "gyudon": 4123,
      "mayonaise": 4124,
      "nescafe": 4125,
      "ai": 4126,
      "abu": 4127,
      "aut": 4128,
      "api": 4129,
      "agar": 4130,
      "asian": 4131,
      "amo": 4132,
      "bom": 4133,
      "cing": 4134,
      "cali": 4135,
      "din": 4136,
      "die": 4137,
      "dora": 4138,
      "ec": 4139,
      "endog": 4140,
      "fa": 4141,
      "fc": 4142,
      "ged": 4143,
      "gila": 4144,
      "gend": 4145,
      "hum": 4146,
      "hay": 4147,
      "hutan": 4148,
      "im": 4149,
      "ip": 4150,
      "jay": 4151,
      "kah": 4152,
      "kaw": 4153,
      "kombinasi": 4154,
      "las": 4155,
      "lup": 4156,
      "leleh": 4157,
      "ni": 4158,
      "nz": 4159,
      "nyo": 4160,
      "od": 4161,
      "oper": 4162,
      "over": 4163,
      "puk": 4164,
      "pump": 4165,
      "putu": 4166,
      "pock": 4167,
      "rotan": 4168,
      "sha": 4169,
      "tang": 4170,
      "tung": 4171,
      "tmb": 4172,
      "uni": 4173,
      "uji": 4174,
      "waf": 4175,
      "yo": 4176,
      "yy": 4177,
      "yung": 4178,
      "##een": 4179,
      "##eat": 4180,
      "##lb": 4181,
      "##gak": 4182,
      "##gis": 4183,
      "##gie": 4184,
      "##gem": 4185,
      "##hot": 4186,
      "##avi": 4187,
      "##bl": 4188,
      "##bat": 4189,
      "##bit": 4190,
      "##bowl": 4191,
      "##bond": 4192,
      "##kin": 4193,
      "##kadot": 4194,
      "##iz": 4195,
      "##id": 4196,
      "##rak": 4197,
      "##row": 4198,
      "##ypot": 4199,
      "##cr": 4200,
      "##cus": 4201,
      "##cola": 4202,
      "##my": 4203,
      "##mus": 4204,
      "##mag": 4205,
      "##myeon": 4206,
      "##meal": 4207,
      "##xy": 4208,
      "##for": 4209,
      "##folds": 4210,
      "##pati": 4211,
      "##dri": 4212,
      "##daging": 4213,
      "##dough": 4214,
      "##sy": 4215,
      "##sal": 4216,
      "##suki": 4217,
      "##vor": 4218,
      "##jah": 4219,
      "##jol": 4220,
      "##jeh": 4221,
      "##otang": 4222,
      "pebb": 4223,
      "yam": 4224,
      "##rbau": 4225,
      "##rbuck": 4226,
      "##usu": 4227,
      "##enl": 4228,
      "##burg": 4229,
      "##ary": 4230,
      "saitam": 4231,
      "saver": 4232,
      "maple": 4233,
      "mabar": 4234,
      "##eram": 4235,
      "##angan": 4236,
      "##appio": 4237,
      "mishake": 4238,
      "chil": 4239,
      "chou": 4240,
      "##keum": 4241,
      "bao": 4242,
      "baang": 4243,
      "##asy": 4244,
      "buaya": 4245,
      "##edo": 4246,
      "##rit": 4247,
      "eshot": 4248,
      "##tua": 4249,
      "##jai": 4250,
      "##jay": 4251,
      "peda": 4252,
      "##nivor": 4253,
      "##ister": 4254,
      "pakis": 4255,
      "kemp": 4256,
      "kerbau": 4257,
      "##way": 4258,
      "kuping": 4259,
      "##omile": 4260,
      "dikeram": 4261,
      "temula": 4262,
      "##agna": 4263,
      "##cho": 4264,
      "##choco": 4265,
      "##und": 4266,
      "broc": 4267,
      "bratw": 4268,
      "##awan": 4269,
      "kansai": 4270,
      "manta": 4271,
      "manado": 4272,
      "manuka": 4273,
      "##ampa": 4274,
      "matang": 4275,
      "##rys": 4276,
      "bogo": 4277,
      "bogul": 4278,
      "ast": 4279,
      "##pir": 4280,
      "marin": 4281,
      "mering": 4282,
      "menta": 4283,
      "crem": 4284,
      "crack": 4285,
      "fru": 4286,
      "frappio": 4287,
      "##ayu": 4288,
      "cool": 4289,
      "##ogat": 4290,
      "bland": 4291,
      "blast": 4292,
      "capjay": 4293,
      "hibis": 4294,
      "alla": 4295,
      "alfr": 4296,
      "142rb": 4297,
      "##mbut": 4298,
      "##astik": 4299,
      "bibim": 4300,
      "asinan": 4301,
      "gurita": 4302,
      "wedhang": 4303,
      "lait": 4304,
      "rempey": 4305,
      "expresso": 4306,
      "seru": 4307,
      "hamburg": 4308,
      "pare": 4309,
      "noir": 4310,
      "kartu": 4311,
      "salju": 4312,
      "sarika": 4313,
      "sarden": 4314,
      "##kuahgoreng": 4315,
      "wheat": 4316,
      "bengbeng": 4317,
      "clou": 4318,
      "class": 4319,
      "vege": 4320,
      "veggie": 4321,
      "tomi": 4322,
      "moch": 4323,
      "mangkok": 4324,
      "sunday": 4325,
      "sunkist": 4326,
      "cornet": 4327,
      "okonom": 4328,
      "gyu": 4329,
      "coffeelover": 4330,
      "alacar": 4331,
      "kolo": 4332,
      "marbel": 4333,
      "kemasan": 4334,
      "starbuck": 4335,
      "anak": 4336,
      "tua": 4337,
      "##sho": 4338,
      "penfolds": 4339,
      "taco": 4340,
      "eggs": 4341,
      "cereal": 4342,
      "kurus": 4343,
      "santan": 4344,
      "frappresso": 4345,
      "sando": 4346,
      "sukiyaki": 4347,
      "gabus": 4348,
      "murni": 4349,
      "rp132rb": 4350,
      "sticky": 4351,
      "chipotle": 4352,
      "rp144rb": 4353,
      "rp141rb": 4354,
      "##jangmyeon": 4355,
      "crabstick": 4356,
      "kool": 4357,
      "##naise": 4358,
      "oats": 4359,
      "oatmeal": 4360,
      "bulan": 4361,
      "rib": 4362,
      "mcd": 4363,
      "herb": 4364,
      "heav": 4365,
      "pohon": 4366,
      "##llas": 4367,
      "beans": 4368,
      "upin": 4369,
      "sourdough": 4370,
      "binjai": 4371,
      "mantou": 4372,
      "papper": 4373,
      "##mint": 4374,
      "##vignon": 4375,
      "pomello": 4376,
      "walnut": 4377,
      "petak": 4378,
      "petis": 4379,
      "formag": 4380,
      "gadung": 4381,
      "blewah": 4382,
      "nako": 4383,
      "oyeng": 4384,
      "##bima": 4385,
      "batatas": 4386,
      "claypot": 4387,
      "mete": 4388,
      "domba": 4389,
      "kota": 4390,
      "korek": 4391,
      "indonesia": 4392,
      "complit": 4393,
      "strobery": 4394,
      "cocacola": 4395,
      "quesadillas": 4396,
      "foami": 4397,
      "siobak": 4398,
      "fritto": 4399,
      "sorbetto": 4400,
      "cotton": 4401,
      "layer": 4402,
      "mocktail": 4403,
      "sansho": 4404,
      "tikka": 4405,
      "sauvignon": 4406,
      "spunbond": 4407,
      "cranberry": 4408,
      "fantasy": 4409,
      "palembang": 4410,
      "zeribowl": 4411,
      "chamomile": 4412,
      "kukubima": 4413,
      "kecipir": 4414,
      "prunes": 4415,
      "ramebox": 4416,
      "sarsaparilla": 4417,
      "mountain": 4418,
      "thanks": 4419,
      "legendaris": 4420,
      "mocacino": 4421,
      "bombay": 4422,
      "califor": 4423,
      "gendon": 4424,
      "ipin": 4425,
      "lasagna": 4426,
      "lupis": 4427,
      "opera": 4428,
      "pumpkin": 4429,
      "tunggak": 4430,
      "wafer": 4431,
      "pebbles": 4432,
      "saitama": 4433,
      "choux": 4434,
      "dikeramasin": 4435,
      "temulawak": 4436,
      "hibiscus": 4437,
      "alfredo": 4438,
      "rempeyek": 4439,
      "sarikaya": 4440,
      "okonomiyaki": 4441,
      "alacarte": 4442,
      "starbucks": 4443,
      "heaven": 4444,
      "formaggi": 4445,
      "california": 4446,
      "aw": 4447,
      "ale": 4448,
      "by": 4449,
      "bf": 4450,
      "bok": 4451,
      "bil": 4452,
      "boci": 4453,
      "cj": 4454,
      "cw": 4455,
      "cel": 4456,
      "cas": 4457,
      "cri": 4458,
      "cum": 4459,
      "con": 4460,
      "cau": 4461,
      "cuc": 4462,
      "comb": 4463,
      "dy": 4464,
      "dak": 4465,
      "doc": 4466,
      "eye": 4467,
      "flat": 4468,
      "flak": 4469,
      "fore": 4470,
      "fond": 4471,
      "gb": 4472,
      "gon": 4473,
      "gelas": 4474,
      "gamb": 4475,
      "gala": 4476,
      "hong": 4477,
      "hog": 4478,
      "hello": 4479,
      "hangang": 4480,
      "hebi": 4481,
      "hongkong": 4482,
      "itik": 4483,
      "impor": 4484,
      "jja": 4485,
      "joh": 4486,
      "kwe": 4487,
      "kuro": 4488,
      "kbon": 4489,
      "lal": 4490,
      "lat": 4491,
      "law": 4492,
      "land": 4493,
      "lamb": 4494,
      "longan": 4495,
      "late": 4496,
      "mos": 4497,
      "ne": 4498,
      "np": 4499,
      "nata": 4500,
      "nogat": 4501,
      "ong": 4502,
      "pg": 4503,
      "pong": 4504,
      "pick": 4505,
      "prek": 4506,
      "ple": 4507,
      "post": 4508,
      "res": 4509,
      "somay": 4510,
      "sake": 4511,
      "tes": 4512,
      "tut": 4513,
      "tower": 4514,
      "tolo": 4515,
      "tampa": 4516,
      "ulang": 4517,
      "vla": 4518,
      "via": 4519,
      "vera": 4520,
      "wa": 4521,
      "wak": 4522,
      "waku": 4523,
      "xavi": 4524,
      "yell": 4525,
      "##ev": 4526,
      "##eed": 4527,
      "##lua": 4528,
      "##lenut": 4529,
      "##oa": 4530,
      "##oise": 4531,
      "##num": 4532,
      "##ness": 4533,
      "##gen": 4534,
      "##gol": 4535,
      "##gon": 4536,
      "##hem": 4537,
      "##hent": 4538,
      "##hangat": 4539,
      "##hock": 4540,
      "##azy": 4541,
      "##ko": 4542,
      "##kon": 4543,
      "##ies": 4544,
      "##ros": 4545,
      "##runch": 4546,
      "##rty": 4547,
      "##ct": 4548,
      "##cti": 4549,
      "##cakes": 4550,
      "##fi": 4551,
      "##usi": 4552,
      "##uang": 4553,
      "##ted": 4554,
      "##pang": 4555,
      "##pas": 4556,
      "##pit": 4557,
      "##pler": 4558,
      "##pokki": 4559,
      "##pine": 4560,
      "##plate": 4561,
      "##di": 4562,
      "##dw": 4563,
      "##dor": 4564,
      "##dja": 4565,
      "##deh": 4566,
      "##sya": 4567,
      "##sel": 4568,
      "##spresso": 4569,
      "##vat": 4570,
      "##jreng": 4571,
      "##wul": 4572,
      "##waku": 4573,
      "##sili": 4574,
      "petai": 4575,
      "pemula": 4576,
      "seaw": 4577,
      "sedu": 4578,
      "##asih": 4579,
      "##eless": 4580,
      "##erve": 4581,
      "siam": 4582,
      "##etti": 4583,
      "##apen": 4584,
      "##apol": 4585,
      "mir": 4586,
      "mies": 4587,
      "cho": 4588,
      "chai": 4589,
      "chese": 4590,
      "chrys": 4591,
      "##icumi": 4592,
      "##kes": 4593,
      "##kean": 4594,
      "batang": 4595,
      "##asapi": 4596,
      "##ikoe": 4597,
      "##rito": 4598,
      "##ridge": 4599,
      "##olat": 4600,
      "##urst": 4601,
      "samurai": 4602,
      "samosa": 4603,
      "sampler": 4604,
      "penyu": 4605,
      "##uman": 4606,
      "##mpa": 4607,
      "teler": 4608,
      "oren": 4609,
      "orong": 4610,
      "##ingz": 4611,
      "tiam": 4612,
      "tiau": 4613,
      "##isjes": 4614,
      "kekean": 4615,
      "##tem": 4616,
      "##ondu": 4617,
      "##int": 4618,
      "##inek": 4619,
      "kubis": 4620,
      "##own": 4621,
      "mash": 4622,
      "##lagen": 4623,
      "tem": 4624,
      "temak": 4625,
      "##bakar": 4626,
      "real": 4627,
      "rebon": 4628,
      "##chy": 4629,
      "##chino": 4630,
      "##chuan": 4631,
      "terung": 4632,
      "##une": 4633,
      "##uncy": 4634,
      "##unca": 4635,
      "##uku": 4636,
      "##epp": 4637,
      "spir": 4638,
      "hottang": 4639,
      "belur": 4640,
      "rich": 4641,
      "##unghi": 4642,
      "mandar": 4643,
      "gepuk": 4644,
      "tarlet": 4645,
      "matasapi": 4646,
      "##lecti": 4647,
      "marah": 4648,
      "dirty": 4649,
      "dideh": 4650,
      "crazy": 4651,
      "smot": 4652,
      "##chae": 4653,
      "coklatkeju": 4654,
      "fre": 4655,
      "empek": 4656,
      "##yogi": 4657,
      "coke": 4658,
      "##enting": 4659,
      "##beiko": 4660,
      "##iro": 4661,
      "##ira": 4662,
      "kwetiao": 4663,
      "bliss": 4664,
      "smoo": 4665,
      "stre": 4666,
      "143rb": 4667,
      "147rb": 4668,
      "142k": 4669,
      "144k": 4670,
      "milkis": 4671,
      "otss": 4672,
      "kerok": 4673,
      "150": 4674,
      "cina": 4675,
      "garu": 4676,
      "doubel": 4677,
      "made": 4678,
      "##daya": 4679,
      "##zelnut": 4680,
      "she": 4681,
      "kepah": 4682,
      "serai": 4683,
      "paris": 4684,
      "##iao": 4685,
      "hangates": 4686,
      "##kul": 4687,
      "##gardja": 4688,
      "melxic": 4689,
      "tanp": 4690,
      "carrot": 4691,
      "carnivor": 4692,
      "pancung": 4693,
      "mixberry": 4694,
      "cilor": 4695,
      "kalio": 4696,
      "rasberry": 4697,
      "drinks": 4698,
      "mami": 4699,
      "##aber": 4700,
      "sale": 4701,
      "salak": 4702,
      "lobak": 4703,
      "polong": 4704,
      "polkadot": 4705,
      "bluberry": 4706,
      "pelastik": 4707,
      "mex": 4708,
      "avoc": 4709,
      "##less": 4710,
      "flori": 4711,
      "flower": 4712,
      "##dua": 4713,
      "##dubu": 4714,
      "##iche": 4715,
      "##vera": 4716,
      "sundubu": 4717,
      "##namite": 4718,
      "tapai": 4719,
      "barong": 4720,
      "light": 4721,
      "limpa": 4722,
      "atjeh": 4723,
      "tambsh": 4724,
      "##ful": 4725,
      "tambahh": 4726,
      "##juku": 4727,
      "macak": 4728,
      "macaroni": 4729,
      "##mix": 4730,
      "sky": 4731,
      "basreng": 4732,
      "kurnia": 4733,
      "malaka": 4734,
      "fruity": 4735,
      "kimci": 4736,
      "kimbab": 4737,
      "##based": 4738,
      "kings": 4739,
      "##ours": 4740,
      "sukun": 4741,
      "burrito": 4742,
      "bungkil": 4743,
      "butterfly": 4744,
      "##ulo": 4745,
      "croqu": 4746,
      "berdua": 4747,
      "pain": 4748,
      "mojitos": 4749,
      "bsr": 4750,
      "kiet": 4751,
      "rp148rb": 4752,
      "rp147rb": 4753,
      "robak": 4754,
      "longev": 4755,
      "cupcakes": 4756,
      "bagea": 4757,
      "sirlo": 4758,
      "queen": 4759,
      "quiche": 4760,
      "darkchoco": 4761,
      "capcai": 4762,
      "tamoe": 4763,
      "collagen": 4764,
      "collecti": 4765,
      "colours": 4766,
      "##raz": 4767,
      "mozarela": 4768,
      "cimol": 4769,
      "luat": 4770,
      "bolognaise": 4771,
      "delfi": 4772,
      "heinek": 4773,
      "onbeiko": 4774,
      "bobola": 4775,
      "degan": 4776,
      "brulle": 4777,
      "##atiaw": 4778,
      "kentu": 4779,
      "upih": 4780,
      "tulangan": 4781,
      "kwatiaw": 4782,
      "magnum": 4783,
      "chickin": 4784,
      "paprika": 4785,
      "mises": 4786,
      "hainam": 4787,
      "patbingsoo": 4788,
      "twist": 4789,
      "twingz": 4790,
      "##osaur": 4791,
      "shiraz": 4792,
      "chocochips": 4793,
      "spageti": 4794,
      "mooncake": 4795,
      "naked": 4796,
      "##herita": 4797,
      "##jeg": 4798,
      "jeju": 4799,
      "jegar": 4800,
      "montana": 4801,
      "chocho": 4802,
      "dome": 4803,
      "tongue": 4804,
      "indonesian": 4805,
      "stroberi": 4806,
      "quesadilla": 4807,
      "fuyunghai": 4808,
      "boneless": 4809,
      "margar": 4810,
      "margherita": 4811,
      "oxtail": 4812,
      "gimmari": 4813,
      "jantung": 4814,
      "mutton": 4815,
      "pokpia": 4816,
      "paulus": 4817,
      "warna": 4818,
      "sempol": 4819,
      "aloevera": 4820,
      "plantbased": 4821,
      "moicik": 4822,
      "instan": 4823,
      "christm": 4824,
      "edam": 4825,
      "japchae": 4826,
      "kyoto": 4827,
      "kasteng": 4828,
      "linggardja": 4829,
      "olive": 4830,
      "tahun": 4831,
      "chatime": 4832,
      "dancow": 4833,
      "abura": 4834,
      "authent": 4835,
      "dorayaki": 4836,
      "hummus": 4837,
      "hayco": 4838,
      "imut": 4839,
      "kahlua": 4840,
      "nigiri": 4841,
      "pocky": 4842,
      "shabu": 4843,
      "young": 4844,
      "##drink": 4845,
      "chilli": 4846,
      "bratwurst": 4847,
      "astor": 4848,
      "marinara": 4849,
      "mentaiko": 4850,
      "crackling": 4851,
      "fruite": 4852,
      "classy": 4853,
      "bilis": 4854,
      "cjdw": 4855,
      "cwie": 4856,
      "cassa": 4857,
      "dynamite": 4858,
      "fondant": 4859,
      "gonjreng": 4860,
      "hoghock": 4861,
      "pgb": 4862,
      "prekto": 4863,
      "wakuwaku": 4864,
      "xavier": 4865,
      "yellow": 4866,
      "seduh": 4867,
      "miesua": 4868,
      "##ondue": 4869,
      "temaki": 4870,
      "spiral": 4871,
      "mandarin": 4872,
      "longevity": 4873,
      "onbeikoek": 4874,
      "linggardjati": 4875,
      "authentic": 4876,
      "ak": 4877,
      "af": 4878,
      "aus": 4879,
      "ani": 4880,
      "ade": 4881,
      "bor": 4882,
      "boc": 4883,
      "boss": 4884,
      "ceng": 4885,
      "cik": 4886,
      "cent": 4887,
      "crispi": 4888,
      "dap": 4889,
      "dah": 4890,
      "dis": 4891,
      "dow": 4892,
      "dino": 4893,
      "dast": 4894,
      "dfc": 4895,
      "diss": 4896,
      "ear": 4897,
      "elit": 4898,
      "ele": 4899,
      "ent": 4900,
      "ena": 4901,
      "eeg": 4902,
      "food": 4903,
      "four": 4904,
      "finger": 4905,
      "funghi": 4906,
      "fondue": 4907,
      "gol": 4908,
      "gos": 4909,
      "gir": 4910,
      "hr": 4911,
      "hok": 4912,
      "hin": 4913,
      "holl": 4914,
      "il": 4915,
      "it": 4916,
      "imp": 4917,
      "ini": 4918,
      "jo": 4919,
      "jr": 4920,
      "jar": 4921,
      "jomb": 4922,
      "kn": 4923,
      "kong": 4924,
      "kum": 4925,
      "kou": 4926,
      "kori": 4927,
      "kill": 4928,
      "kayu": 4929,
      "kyogi": 4930,
      "lak": 4931,
      "lawar": 4932,
      "mr": 4933,
      "mor": 4934,
      "mood": 4935,
      "mokk": 4936,
      "nn": 4937,
      "nar": 4938,
      "nik": 4939,
      "nom": 4940,
      "nana": 4941,
      "nest": 4942,
      "nomi": 4943,
      "napol": 4944,
      "ote": 4945,
      "ogu": 4946,
      "ooy": 4947,
      "osaka": 4948,
      "ojol": 4949,
      "ph": 4950,
      "pus": 4951,
      "poc": 4952,
      "papan": 4953,
      "pocado": 4954,
      "rap": 4955,
      "rah": 4956,
      "rol": 4957,
      "rad": 4958,
      "rapp": 4959,
      "rare": 4960,
      "stu": 4961,
      "sut": 4962,
      "sli": 4963,
      "sombo": 4964,
      "sze": 4965,
      "solo": 4966,
      "tas": 4967,
      "tuk": 4968,
      "taw": 4969,
      "tusuk": 4970,
      "uw": 4971,
      "ung": 4972,
      "uri": 4973,
      "uny": 4974,
      "umbut": 4975,
      "ver": 4976,
      "vari": 4977,
      "wasa": 4978,
      "wall": 4979,
      "ye": 4980,
      "yen": 4981,
      "yeo": 4982,
      "zen": 4983,
      "##esi": 4984,
      "##ebak": 4985,
      "##lng": 4986,
      "##lad": 4987,
      "##lalapan": 4988,
      "##oning": 4989,
      "##nu": 4990,
      "##ney": 4991,
      "##ges": 4992,
      "##ged": 4993,
      "##gad": 4994,
      "##gih": 4995,
      "##he": 4996,
      "##hag": 4997,
      "##hona": 4998,
      "##az": 4999
    }
  }
}