{
  "version": "1.0",
  "truncation": null,
  "padding": null,
  "added_tokens": [
    {
      "id": 0,
      "content": "[PAD]",
      "single_word": false,
      "lstrip": false,
      "rstrip": false,
      "normalized": false,
      "special": true
    },
    {
      "id": 1,
      "content": "[UNK]",
      "single_word": false,
      "lstrip": false,
      "rstrip": false,
      "normalized": false,
      "special": true
    },
    {
      "id": 2,
      "content": "[SEP]",
      "single_word": false,
      "lstrip": false,
      "rstrip": false,
      "normalized": false,
      "special": true
    }
  ],
  "normalizer": null,
  "pre_tokenizer": {
    "type": "Whitespace"
  },
  "post_processor": null,
  "decoder": null,
  "model": {
    "type": "WordPiece",
    "unk_token": "[UNK]",
    "continuing_subword_prefix": "##",
    "max_input_chars_per_word": 100,
    "vocab": {
      "[PAD]": 0,
      "[UNK]": 1,
      "[SEP]": 2,
      "(": 3,
      ")": 4,
      "+": 5,
      ",": 6,
      ".": 7,
      "0": 8,
      "1": 9,
      "2": 10,
      "3": 11,
      "4": 12,
      "5": 13,
      "6": 14,
      "7": 15,
      "8": 16,
      "9": 17,
      "=": 18,
      "E": 19,
      "P": 20,
      "S": 21,
      "[": 22,
      "]": 23,
      "a": 24,
      "b": 25,
      "c": 26,
      "d": 27,
      "e": 28,
      "f": 29,
      "g": 30,
      "h": 31,
      "i": 32,
      "j": 33,
      "k": 34,
      "l": 35,
      "m": 36,
      "n": 37,
      "o": 38,
      "p": 39,
      "q": 40,
      "r": 41,
      "s": 42,
      "t": 43,
      "u": 44,
      "v": 45,
      "w": 46,
      "x": 47,
      "y": 48,
      "z": 49,
      "##8": 50,
      "##k": 51,
      "##a": 52,
      "##d": 53,
      "##u": 54,
      "##2": 55,
      "##r": 56,
      "##b": 57,
      "##s": 58,
      "##n": 59,
      "##p": 60,
      "##4": 61,
      "##0": 62,
      "##i": 63,
      "##t": 64,
      "##h": 65,
      "##l": 66,
      "##5": 67,
      "##1": 68,
      "##e": 69,
      "##w": 70,
      "##y": 71,
      "##g": 72,
      "##6": 73,
      "##m": 74,
      "##o": 75,
      "##j": 76,
      "##c": 77,
      "##3": 78,
      "##7": 79,
      "##9": 80,
      "##f": 81,
      "##v": 82,
      "##z": 83,
      "##x": 84,
      "##q": 85,
      "##E": 86,
      "##P": 87,
      "##ak": 88,
      "kak": 89,
      "##an": 90,
      "##ya": 91,
      "##si": 92,
      "##en": 93,
      "##ot": 94,
      "SE": 95,
      "SEP": 96,
      "##al": 97,
      "##or": 98,
      "ya": 99,
      "tot": 100,
      "total": 101,
      "##ng": 102,
      "##00": 103,
      "##er": 104,
      "##rb": 105,
      "rp": 106,
      "000": 107,
      "##asi": 108,
      "nasi": 109,
      "##es": 110,
      "##nya": 111,
      "##ar": 112,
      "##yam": 113,
      "ayam": 114,
      "totalnya": 115,
      "##am": 116,
      "por": 117,
      "porsi": 118,
      "##ap": 119,
      "ma": 120,
      "##us": 121,
      "pes": 122,
      "##ong": 123,
      "##eng": 124,
      "##bu": 125,
      "ch": 126,
      "mi": 127,
      "##ic": 128,
      "##el": 129,
      "##at": 130,
      "##ed": 131,
      "si": 132,
      "##ke": 133,
      "##ang": 134,
      "ri": 135,
      "##et": 136,
      "oke": 137,
      "##oreng": 138,
      "ribu": 139,
      "goreng": 140,
      "dong": 141,
      "siap": 142,
      "##ick": 143,
      "chick": 144,
      "chicken": 145,
      "##ah": 146,
      "mau": 147,
      "bak": 148,
      "ba": 149,
      "##ur": 150,
      "sam": 151,
      "##ad": 152,
      "##ih": 153,
      "dan": 154,
      "per": 155,
      "##um": 156,
      "##op": 157,
      "pen": 158,
      "##arg": 159,
      "or": 160,
      "pesan": 161,
      "peny": 162,
      "penyet": 163,
      "not": 164,
      "noted": 165,
      "##is": 166,
      "##ik": 167,
      "mie": 168,
      "harg": 169,
      "##ung": 170,
      "es": 171,
      "baik": 172,
      "pesen": 173,
      "##so": 174,
      "##adi": 175,
      "jadi": 176,
      "##eh": 177,
      "ord": 178,
      "##ek": 179,
      "order": 180,
      "nih": 181,
      "##as": 182,
      "sus": 183,
      "bakso": 184,
      "##ol": 185,
      "min": 186,
      "sama": 187,
      "##ok": 188,
      "##in": 189,
      "##te": 190,
      "##ing": 191,
      "susu": 192,
      "10": 193,
      "jum": 194,
      "##ep": 195,
      "cr": 196,
      "sat": 197,
      "tel": 198,
      "##kus": 199,
      "##uan": 200,
      "satuan": 201,
      "nya": 202,
      "bung": 203,
      "##0rb": 204,
      "bungkus": 205,
      "samb": 206,
      "##it": 207,
      "##un": 208,
      "##anya": 209,
      "harganya": 210,
      "kop": 211,
      "harga": 212,
      "##on": 213,
      "##om": 214,
      "kopi": 215,
      "##ut": 216,
      "##em": 217,
      "##eb": 218,
      "##atte": 219,
      "sambal": 220,
      "latte": 221,
      "##uk": 222,
      "##ec": 223,
      "##ta": 224,
      "mas": 225,
      "bu": 226,
      "sp": 227,
      "ter": 228,
      "teh": 229,
      "gep": 230,
      "bakar": 231,
      "telur": 232,
      "##ea": 233,
      "##4rb": 234,
      "##bo": 235,
      "ku": 236,
      "##au": 237,
      "##lah": 238,
      "gepr": 239,
      "##bak": 240,
      "##py": 241,
      "##2rb": 242,
      "##la": 243,
      "##8rb": 244,
      "##6rb": 245,
      "rp1": 246,
      "geprek": 247,
      "##5rb": 248,
      "##oc": 249,
      "##ispy": 250,
      "ud": 251,
      "crispy": 252,
      "jumlah": 253,
      "jumlahnya": 254,
      "##ro": 255,
      "##ies": 256,
      "minta": 257,
      "rp2": 258,
      "##ie": 259,
      "bol": 260,
      "##aw": 261,
      "udang": 262,
      "bel": 263,
      "rp3": 264,
      "##kan": 265,
      "ikan": 266,
      "##lat": 267,
      "pak": 268,
      "##il": 269,
      "sop": 270,
      "boleh": 271,
      "man": 272,
      "jumbo": 273,
      "##0k": 274,
      "ic": 275,
      "##1rb": 276,
      "bo": 277,
      "##3rb": 278,
      "##ag": 279,
      "##7rb": 280,
      "##9rb": 281,
      "##amp": 282,
      "bg": 283,
      "bis": 284,
      "jus": 285,
      "in": 286,
      "kk": 287,
      "beb": 288,
      "bebek": 289,
      "##ig": 290,
      "bisa": 291,
      "##ha": 292,
      "bang": 293,
      "beli": 294,
      "mbak": 295,
      "##ir": 296,
      "rp4": 297,
      "##ee": 298,
      "##eg": 299,
      "ind": 300,
      "pan": 301,
      "tar": 302,
      "sa": 303,
      "orig": 304,
      "origin": 305,
      "original": 306,
      "cok": 307,
      "##oto": 308,
      "##os": 309,
      "##ahu": 310,
      "co": 311,
      "tea": 312,
      "##row": 313,
      "ke": 314,
      "##ba": 315,
      "##asa": 316,
      "##omie": 317,
      "ca": 318,
      "indomie": 319,
      "terus": 320,
      "##2k": 321,
      "##od": 322,
      "tahu": 323,
      "##ger": 324,
      "##4k": 325,
      "brow": 326,
      "bur": 327,
      "brown": 328,
      "coklat": 329,
      "soto": 330,
      "bi": 331,
      "##mp": 332,
      "##jo": 333,
      "rp5": 334,
      "##emp": 335,
      "choc": 336,
      "##le": 337,
      "biasa": 338,
      "##ju": 339,
      "keju": 340,
      "##ff": 341,
      "rp6": 342,
      "##ant": 343,
      "12": 344,
      "##ga": 345,
      "##ihun": 346,
      "bihun": 347,
      "18": 348,
      "##ood": 349,
      "##umi": 350,
      "boba": 351,
      "##6k": 352,
      "##food": 353,
      "spic": 354,
      "spicy": 355,
      "taro": 356,
      "11": 357,
      "##5k": 358,
      "jam": 359,
      "so": 360,
      "13": 361,
      "##ian": 362,
      "##ese": 363,
      "hot": 364,
      "fr": 365,
      "pang": 366,
      "21": 367,
      "ped": 368,
      "14": 369,
      "cumi": 370,
      "##8k": 371,
      "manis": 372,
      "ice": 373,
      "burger": 374,
      "telor": 375,
      "##im": 376,
      "put": 377,
      "penyetan": 378,
      "putih": 379,
      "camp": 380,
      "campur": 381,
      "mar": 382,
      "pedas": 383,
      "kuah": 384,
      "ac": 385,
      "16": 386,
      "brownies": 387,
      "pop": 388,
      "##wet": 389,
      "kec": 390,
      "##ry": 391,
      "sea": 392,
      "##lit": 393,
      "seafood": 394,
      "sap": 395,
      "mat": 396,
      "sapi": 397,
      "19": 398,
      "15": 399,
      "teri": 400,
      "##eci": 401,
      "17": 402,
      "che": 403,
      "##esi": 404,
      "##ele": 405,
      "27": 406,
      "##eam": 407,
      "##oy": 408,
      "cream": 409,
      "##ul": 410,
      "##oz": 411,
      "##su": 412,
      "ijo": 413,
      "##sit": 414,
      "##pa": 415,
      "st": 416,
      "do": 417,
      "24": 418,
      "28": 419,
      "mer": 420,
      "22": 421,
      "##aki": 422,
      "pec": 423,
      "##esial": 424,
      "spesial": 425,
      "jer": 426,
      "kwet": 427,
      "kweti": 428,
      "##aging": 429,
      "##ch": 430,
      "gur": 431,
      "daging": 432,
      "iga": 433,
      "##ffee": 434,
      "##jau": 435,
      "23": 436,
      "cin": 437,
      "tha": 438,
      "top": 439,
      "##ac": 440,
      "20": 441,
      "moz": 442,
      "cinc": 443,
      "##end": 444,
      "##up": 445,
      "sm": 446,
      "##annya": 447,
      "pesanannya": 448,
      "masuk": 449,
      "pangsit": 450,
      "##gu": 451,
      "29": 452,
      "##itung": 453,
      "ditung": 454,
      "ditunggu": 455,
      "25": 456,
      "om": 457,
      "##wan": 458,
      "36": 459,
      "##and": 460,
      "kulit": 461,
      "emp": 462,
      "26": 463,
      "31": 464,
      "lele": 465,
      "33": 466,
      "32": 467,
      "##ings": 468,
      "##sis": 469,
      "##ber": 470,
      "kwetiau": 471,
      "37": 472,
      "sosis": 473,
      "as": 474,
      "rp7": 475,
      "tt": 476,
      "##ay": 477,
      "jeruk": 478,
      "39": 479,
      "##tel": 480,
      "mad": 481,
      "##ump": 482,
      "tir": 483,
      "tiram": 484,
      "empal": 485,
      "sed": 486,
      "##ecial": 487,
      "special": 488,
      "30": 489,
      "temp": 490,
      "mil": 491,
      "##ula": 492,
      "bakwan": 493,
      "med": 494,
      "tempe": 495,
      "ric": 496,
      "34": 497,
      "35": 498,
      "kar": 499,
      "tan": 500,
      "mang": 501,
      "##ela": 502,
      "##ent": 503,
      "chocol": 504,
      "ste": 505,
      "##berry": 506,
      "##cha": 507,
      "merah": 508,
      "steak": 509,
      "##be": 510,
      "tanpa": 511,
      "coffee": 512,
      "kamp": 513,
      "cheese": 514,
      "##itam": 515,
      "hitam": 516,
      "mini": 517,
      "42": 518,
      "43": 519,
      "49": 520,
      "iced": 521,
      "##ebus": 522,
      "hi": 523,
      "wings": 524,
      "jamur": 525,
      "hijau": 526,
      "cook": 527,
      "##ri": 528,
      "reg": 529,
      "cookies": 530,
      "pis": 531,
      "41": 532,
      "##uu": 533,
      "##ja": 534,
      "kat": 535,
      "44": 536,
      "katsu": 537,
      "##raw": 538,
      "40": 539,
      "choco": 540,
      "##orn": 541,
      "thai": 542,
      "gula": 543,
      "say": 544,
      "##yaki": 545,
      "sayur": 546,
      "##ud": 547,
      "panas": 548,
      "##oti": 549,
      "51": 550,
      "roti": 551,
      "teriyaki": 552,
      "ttl": 553,
      "##ium": 554,
      "##ble": 555,
      "45": 556,
      "set": 557,
      "##teh": 558,
      "63": 559,
      "##wer": 560,
      "47": 561,
      "medium": 562,
      "48": 563,
      "bab": 564,
      "##ada": 565,
      "bal": 566,
      "masak": 567,
      "kampung": 568,
      "52": 569,
      "masakan": 570,
      "38": 571,
      "asam": 572,
      "chocolat": 573,
      "##otong": 574,
      "cabe": 575,
      "##esar": 576,
      "matcha": 577,
      "seg": 578,
      "marta": 579,
      "martabak": 580,
      "##ila": 581,
      "sedang": 582,
      "segar": 583,
      "56": 584,
      "par": 585,
      "##angi": 586,
      "54": 587,
      "##ping": 588,
      "46": 589,
      "ram": 590,
      "##ey": 591,
      "53": 592,
      "##ado": 593,
      "kun": 594,
      "cap": 595,
      "57": 596,
      "##ti": 597,
      "kecap": 598,
      "50": 599,
      "larg": 600,
      "large": 601,
      "guram": 602,
      "cincau": 603,
      "##ahan": 604,
      "##omay": 605,
      "##id": 606,
      "59": 607,
      "rebus": 608,
      "siomay": 609,
      "##old": 610,
      "saos": 611,
      "omahan": 612,
      "aceh": 613,
      "panc": 614,
      "pecel": 615,
      "##cin": 616,
      "rica": 617,
      "bl": 618,
      "straw": 619,
      "sal": 620,
      "strawberry": 621,
      "matah": 622,
      "toping": 623,
      "##bq": 624,
      "bbq": 625,
      "67": 626,
      "ti": 627,
      "ati": 628,
      "nut": 629,
      "ek": 630,
      "##ara": 631,
      "pet": 632,
      "71": 633,
      "##lak": 634,
      "69": 635,
      "sambel": 636,
      "aci": 637,
      "60": 638,
      "61": 639,
      "##eblak": 640,
      "seblak": 641,
      "tep": 642,
      "tepung": 643,
      "##ast": 644,
      "dower": 645,
      "##angat": 646,
      "hangat": 647,
      "kac": 648,
      "red": 649,
      "kacang": 650,
      "ly": 651,
      "##ling": 652,
      "lych": 653,
      "tim": 654,
      "lychee": 655,
      "73": 656,
      "pisang": 657,
      "pecak": 658,
      "64": 659,
      "nila": 660,
      "58": 661,
      "##og": 662,
      "amp": 663,
      "re": 664,
      "##umpling": 665,
      "dumpling": 666,
      "sel": 667,
      "55": 668,
      "72": 669,
      "ha": 670,
      "ampela": 671,
      "65": 672,
      "##cino": 673,
      "besar": 674,
      "66": 675,
      "kuning": 676,
      "##elet": 677,
      "sup": 678,
      "##ck": 679,
      "esteh": 680,
      "##oast": 681,
      "cold": 682,
      "lada": 683,
      "gurih": 684,
      "##wang": 685,
      "##co": 686,
      "##ingin": 687,
      "dingin": 688,
      "kh": 689,
      "##lic": 690,
      "##epes": 691,
      "com": 692,
      "##yung": 693,
      "bla": 694,
      "##potong": 695,
      "black": 696,
      "kent": 697,
      "70": 698,
      "##age": 699,
      "##rg": 700,
      "hrg": 701,
      "pancong": 702,
      "kentang": 703,
      "fries": 704,
      "combo": 705,
      "milo": 706,
      "if": 707,
      "62": 708,
      "ab": 709,
      "me": 710,
      "##ush": 711,
      "super": 712,
      "su": 713,
      "bayam": 714,
      "##ki": 715,
      "fren": 716,
      "ar": 717,
      "moza": 718,
      "van": 719,
      "##yo": 720,
      "madu": 721,
      "##goreng": 722,
      "##ter": 723,
      "75": 724,
      "68": 725,
      "##illa": 726,
      "car": 727,
      "djo": 728,
      "##edes": 729,
      "djoedes": 730,
      "##sol": 731,
      "ramen": 732,
      "risol": 733,
      "topping": 734,
      "karage": 735,
      "cl": 736,
      "terong": 737,
      "dend": 738,
      "dendeng": 739,
      "rbu": 740,
      "vanilla": 741,
      "wh": 742,
      "cincang": 743,
      "##omb": 744,
      "##amel": 745,
      "popc": 746,
      "da": 747,
      "barb": 748,
      "dou": 749,
      "caramel": 750,
      "dad": 751,
      "##bok": 752,
      "double": 753,
      "gul": 754,
      "##ris": 755,
      "##ake": 756,
      "popcorn": 757,
      "dadar": 758,
      "##puk": 759,
      "tarik": 760,
      "non": 761,
      "##zen": 762,
      "fro": 763,
      "frozen": 764,
      "la": 765,
      "chocolate": 766,
      "##nut": 767,
      "##zel": 768,
      "regal": 769,
      "##zelnut": 770,
      "##oyang": 771,
      "##ia": 772,
      "##eo": 773,
      "kem": 774,
      "sar": 775,
      "74": 776,
      "##umbu": 777,
      "##pu": 778,
      "oreo": 779,
      "bumbu": 780,
      "ny": 781,
      "band": 782,
      "lam": 783,
      "##telor": 784,
      "buah": 785,
      "cek": 786,
      "omelet": 787,
      "sem": 788,
      "cappu": 789,
      "ceker": 790,
      "omelette": 791,
      "bandung": 792,
      "##oan": 793,
      "fu": 794,
      "dur": 795,
      "on": 796,
      "babat": 797,
      "##men": 798,
      "##ano": 799,
      "##bung": 800,
      "nus": 801,
      "caf": 802,
      "##ny": 803,
      "sh": 804,
      "##all": 805,
      "bakm": 806,
      "##awar": 807,
      "milk": 808,
      "##uj": 809,
      "##ocok": 810,
      "hrgny": 811,
      "kr": 812,
      "kocok": 813,
      "##nasi": 814,
      "saus": 815,
      "tawar": 816,
      "##gang": 817,
      "am": 818,
      "panggang": 819,
      "pad": 820,
      "bawang": 821,
      "lo": 822,
      "padang": 823,
      "##assi": 824,
      "sate": 825,
      "beng": 826,
      "jambu": 827,
      "##han": 828,
      "##vet": 829,
      "regul": 830,
      "##per": 831,
      "##ura": 832,
      "##elvet": 833,
      "ifum": 834,
      "ifumie": 835,
      "small": 836,
      "cah": 837,
      "kep": 838,
      "kecil": 839,
      "velvet": 840,
      "##ku": 841,
      "french": 842,
      "blu": 843,
      "salad": 844,
      "tiaw": 845,
      "ur": 846,
      "##ver": 847,
      "gar": 848,
      "hazelnut": 849,
      "veg": 850,
      "##kuah": 851,
      "crepes": 852,
      "udon": 853,
      "##epper": 854,
      "##ori": 855,
      "##ella": 856,
      "##ip": 857,
      "##bel": 858,
      "ker": 859,
      "ot": 860,
      "gulai": 861,
      "pe": 862,
      "cur": 863,
      "creamy": 864,
      "toast": 865,
      "manyung": 866,
      "bs": 867,
      "curry": 868,
      "##ai": 869,
      "bulat": 870,
      "mozar": 871,
      "##pao": 872,
      "garlic": 873,
      "wor": 874,
      "bakpao": 875,
      "marb": 876,
      "peras": 877,
      "##ss": 878,
      "##00rb": 879,
      "khas": 880,
      "blackp": 881,
      "wortel": 882,
      "##aha": 883,
      "marble": 884,
      "yam": 885,
      "##bur": 886,
      "kemangi": 887,
      "lem": 888,
      "##iri": 889,
      "##ra": 890,
      "##oll": 891,
      "##anti": 892,
      "##ket": 893,
      "susanti": 894,
      "rend": 895,
      "mush": 896,
      "##room": 897,
      "rendang": 898,
      "lover": 899,
      "mushroom": 900,
      "kal": 901,
      "##ks": 902,
      "mangga": 903,
      "tiramis": 904,
      "blackpepper": 905,
      "dori": 906,
      "gem": 907,
      "##elat": 908,
      "abon": 909,
      "##ab": 910,
      "loyang": 911,
      "##ala": 912,
      "##obo": 913,
      "##ill": 914,
      "##iland": 915,
      "##uda": 916,
      "barbar": 917,
      "##oney": 918,
      "thailand": 919,
      "##con": 920,
      "honey": 921,
      "kri": 922,
      "aren": 923,
      "muda": 924,
      "##don": 925,
      "lemon": 926,
      "cafe": 927,
      "##cket": 928,
      "bucket": 929,
      "gong": 930,
      "gongso": 931,
      "cor": 932,
      "wangi": 933,
      "##ole": 934,
      "up": 935,
      "cordon": 936,
      "ta": 937,
      "whole": 938,
      "##oked": 939,
      "gembung": 940,
      "smoked": 941,
      "kepala": 942,
      "##za": 943,
      "mercon": 944,
      "##tra": 945,
      "ran": 946,
      "remp": 947,
      "ranjau": 948,
      "al": 949,
      "fill": 950,
      "##sin": 951,
      "fillet": 952,
      "otot": 953,
      "##7k": 954,
      "dr": 955,
      "pol": 956,
      "##fc": 957,
      "timbel": 958,
      "kid": 959,
      "##rang": 960,
      "##ichan": 961,
      "taichan": 962,
      "kecomb": 963,
      "kecombrang": 964,
      "rop": 965,
      "lamian": 966,
      "kids": 967,
      "ropang": 968,
      "corn": 969,
      "bag": 970,
      "xx": 971,
      "##gar": 972,
      "xxl": 973,
      "cappucino": 974,
      "hok": 975,
      "toy": 976,
      "daun": 977,
      "toys": 978,
      "asin": 979,
      "##bi": 980,
      "mango": 981,
      "tom": 982,
      "sugar": 983,
      "##hi": 984,
      "##ader": 985,
      "polos": 986,
      "##ith": 987,
      "wader": 988,
      "with": 989,
      "##ib": 990,
      "kukus": 991,
      "nusant": 992,
      "##qu": 993,
      "bat": 994,
      "##angk": 995,
      "baso": 996,
      "##ari": 997,
      "jamet": 998,
      "babi": 999,
      "jel": 1000,
      "chees": 1001,
      "pud": 1002,
      "ras": 1003,
      "classi": 1004,
      "classic": 1005,
      "durian": 1006,
      "kom": 1007,
      "mu": 1008,
      "ben": 1009,
      "sing": 1010,
      "##plit": 1011,
      "##1k": 1012,
      "nusantara": 1013,
      "##und": 1014,
      "reguler": 1015,
      "komplit": 1016,
      "bensu": 1017,
      "ble": 1018,
      "##oco": 1019,
      "cheesy": 1020,
      "an": 1021,
      "##awa": 1022,
      "##dan": 1023,
      "##awi": 1024,
      "pandan": 1025,
      "ser": 1026,
      "##ker": 1027,
      "##9k": 1028,
      "sk": 1029,
      "sant": 1030,
      "ekor": 1031,
      "##emek": 1032,
      "gurame": 1033,
      "pk": 1034,
      "muja": 1035,
      "ban": 1036,
      "santap": 1037,
      "pkt": 1038,
      "##angka": 1039,
      "##emes": 1040,
      "##risari": 1041,
      "mujair": 1042,
      "nutrisari": 1043,
      "kremes": 1044,
      "##3k": 1045,
      "ubi": 1046,
      "madura": 1047,
      "tiramisu": 1048,
      "##iss": 1049,
      "belac": 1050,
      "belacan": 1051,
      "pl": 1052,
      "##lang": 1053,
      "##mon": 1054,
      "gurami": 1055,
      "semangka": 1056,
      "nong": 1057,
      "rice": 1058,
      "bakmi": 1059,
      "nongki": 1060,
      "nag": 1061,
      "##kong": 1062,
      "##ob": 1063,
      "##pukat": 1064,
      "alpukat": 1065,
      "ang": 1066,
      "karet": 1067,
      "permen": 1068,
      "paru": 1069,
      "no": 1070,
      "##anas": 1071,
      "##one": 1072,
      "rebu": 1073,
      "mes": 1074,
      "plat": 1075,
      "naga": 1076,
      "ber": 1077,
      "olah": 1078,
      "##upuk": 1079,
      "asap": 1080,
      "chocolatos": 1081,
      "roll": 1082,
      "##ako": 1083,
      "cao": 1084,
      "olahan": 1085,
      "plus": 1086,
      "kue": 1087,
      "mand": 1088,
      "br": 1089,
      "loco": 1090,
      "cir": 1091,
      "kro": 1092,
      "cil": 1093,
      "##yap": 1094,
      "mozza": 1095,
      "cireng": 1096,
      "kerupuk": 1097,
      "##yok": 1098,
      "gorengkuah": 1099,
      "parut": 1100,
      "yambok": 1101,
      "kroyok": 1102,
      "amer": 1103,
      "cilok": 1104,
      "rb": 1105,
      "##rit": 1106,
      "##otel": 1107,
      "mayo": 1108,
      "bola": 1109,
      "dim": 1110,
      "##sum": 1111,
      "hangates": 1112,
      "americ": 1113,
      "##otelur": 1114,
      "sek": 1115,
      "##oth": 1116,
      "dimsum": 1117,
      "##ess": 1118,
      "##oboyo": 1119,
      "hun": 1120,
      "##eka": 1121,
      "smo": 1122,
      "##ven": 1123,
      "nako": 1124,
      "##li": 1125,
      "aneka": 1126,
      "ganas": 1127,
      "kuahgoreng": 1128,
      "basi": 1129,
      "timun": 1130,
      "rbuan": 1131,
      "ko": 1132,
      "tal": 1133,
      "##iku": 1134,
      "cokelat": 1135,
      "americano": 1136,
      "basil": 1137,
      "ruj": 1138,
      "sedap": 1139,
      "rujak": 1140,
      "##antar": 1141,
      "siantar": 1142,
      "##hun": 1143,
      "marah": 1144,
      "miehun": 1145,
      "smooth": 1146,
      "mam": 1147,
      "##uuuu": 1148,
      "rp12": 1149,
      "##ler": 1150,
      "ex": 1151,
      "sifood": 1152,
      "mant": 1153,
      "leci": 1154,
      "salmon": 1155,
      "tem": 1156,
      "pecaknasi": 1157,
      "onc": 1158,
      "jeroan": 1159,
      "extra": 1160,
      "tun": 1161,
      "##ly": 1162,
      "rp9": 1163,
      "##elai": 1164,
      "ala": 1165,
      "tuna": 1166,
      "kool": 1167,
      "coto": 1168,
      "wed": 1169,
      "cro": 1170,
      "kas": 1171,
      "wedang": 1172,
      "rp14": 1173,
      "##pok": 1174,
      "jelly": 1175,
      "india": 1176,
      "kasar": 1177,
      "pin": 1178,
      "rp11": 1179,
      "120": 1180,
      "eks": 1181,
      "##app": 1182,
      "##rip": 1183,
      "##gg": 1184,
      "tump": 1185,
      "##va": 1186,
      "tumpeng": 1187,
      "rp13": 1188,
      "##wl": 1189,
      "kon": 1190,
      "##bokki": 1191,
      "ap": 1192,
      "box": 1193,
      "mami": 1194,
      "balap": 1195,
      "##rebus": 1196,
      "gorengrebus": 1197,
      "pete": 1198,
      "konro": 1199,
      "tak": 1200,
      "##alus": 1201,
      "##coffee": 1202,
      "bowl": 1203,
      "##ffe": 1204,
      "bscoffee": 1205,
      "##oyaki": 1206,
      "fri": 1207,
      "takoyaki": 1208,
      "kriuk": 1209,
      "keb": 1210,
      "puk": 1211,
      "yaki": 1212,
      "pok": 1213,
      "ini": 1214,
      "rm": 1215,
      "fried": 1216,
      "##du": 1217,
      "kebab": 1218,
      "mix": 1219,
      "urat": 1220,
      "pukpuk": 1221,
      "##inian": 1222,
      "##eef": 1223,
      "rp16": 1224,
      "lemp": 1225,
      "beef": 1226,
      "##ze": 1227,
      "##arian": 1228,
      "strip": 1229,
      "blue": 1230,
      "but": 1231,
      "##st": 1232,
      "coffe": 1233,
      "veget": 1234,
      "lemper": 1235,
      "dada": 1236,
      "rp8": 1237,
      "ok": 1238,
      "##oek": 1239,
      "balado": 1240,
      "bagian": 1241,
      "butter": 1242,
      "vegetarian": 1243,
      "rum": 1244,
      "##to": 1245,
      "dg": 1246,
      "se": 1247,
      "##ruk": 1248,
      "kaldu": 1249,
      "xo": 1250,
      "lava": 1251,
      "potong": 1252,
      "chese": 1253,
      "60rb": 1254,
      "tau": 1255,
      "ttoek": 1256,
      "suun": 1257,
      "ttoekbokki": 1258,
      "##bk": 1259,
      "shap": 1260,
      "ra": 1261,
      "##ce": 1262,
      "##ina": 1263,
      "belut": 1264,
      "pokpok": 1265,
      "72k": 1266,
      "##iun": 1267,
      "rp21": 1268,
      "madiun": 1269,
      "sei": 1270,
      "sis": 1271,
      "rp60rb": 1272,
      "croiss": 1273,
      "it": 1274,
      "pat": 1275,
      "croissant": 1276,
      "##ebo": 1277,
      "30k": 1278,
      "pind": 1279,
      "api": 1280,
      "poc": 1281,
      "##alian": 1282,
      "marina": 1283,
      "qu": 1284,
      "rp48rb": 1285,
      "##ebox": 1286,
      "pindang": 1287,
      "48rb": 1288,
      "##ty": 1289,
      "jawa": 1290,
      "originalpotong": 1291,
      "italian": 1292,
      "rp40rb": 1293,
      "yak": 1294,
      "##ock": 1295,
      "kwetiaw": 1296,
      "lod": 1297,
      "##ini": 1298,
      "rp18": 1299,
      "clbk": 1300,
      "lovers": 1301,
      "lodeh": 1302,
      "70rb": 1303,
      "rp36rb": 1304,
      "mozarella": 1305,
      "tauco": 1306,
      "48k": 1307,
      "##size": 1308,
      "##ore": 1309,
      "##apan": 1310,
      "ramebox": 1311,
      "upsize": 1312,
      "36rb": 1313,
      "kings": 1314,
      "us": 1315,
      "##reng": 1316,
      "rp10": 1317,
      "##he": 1318,
      "##00k": 1319,
      "##eyek": 1320,
      "blueb": 1321,
      "##undeng": 1322,
      "paha": 1323,
      "serundeng": 1324,
      "poci": 1325,
      "gulung": 1326,
      "bent": 1327,
      "ham": 1328,
      "##aap": 1329,
      "##ram": 1330,
      "rp15": 1331,
      "##ati": 1332,
      "meal": 1333,
      "blueber": 1334,
      "peyek": 1335,
      "wing": 1336,
      "chip": 1337,
      "panini": 1338,
      "##ogh": 1339,
      "##burger": 1340,
      "bento": 1341,
      "24k": 1342,
      "30rb": 1343,
      "del": 1344,
      "mung": 1345,
      "ment": 1346,
      "pemp": 1347,
      "roast": 1348,
      "##aya": 1349,
      "urap": 1350,
      "mozaru": 1351,
      "mungker": 1352,
      "pempek": 1353,
      "bar": 1354,
      "ireng": 1355,
      "bakarg": 1356,
      "180": 1357,
      "bakargoreng": 1358,
      "mc": 1359,
      "nu": 1360,
      "sawi": 1361,
      "##engg": 1362,
      "##iniku": 1363,
      "medan": 1364,
      "selam": 1365,
      "wah": 1366,
      "##wo": 1367,
      "rp56rb": 1368,
      "cheeseburger": 1369,
      "cb": 1370,
      "kol": 1371,
      "##igiri": 1372,
      "##rawit": 1373,
      "yakiniku": 1374,
      "usus": 1375,
      "wahaha": 1376,
      "cbrawit": 1377,
      "##aubak": 1378,
      "khaubak": 1379,
      "mentah": 1380,
      "li": 1381,
      "##ice": 1382,
      "##och": 1383,
      "rp20rb": 1384,
      "fur": 1385,
      "tengg": 1386,
      "bakarnasi": 1387,
      "rempah": 1388,
      "bleu": 1389,
      "raja": 1390,
      "tenggiri": 1391,
      "32rb": 1392,
      "hap": 1393,
      "kuk": 1394,
      "slic": 1395,
      "##ikake": 1396,
      "rp17": 1397,
      "nutella": 1398,
      "onigiri": 1399,
      "furikake": 1400,
      "happy": 1401,
      "fla": 1402,
      "isi": 1403,
      "kfc": 1404,
      "chun": 1405,
      "rp72rb": 1406,
      "kecombrangpotong": 1407,
      "patty": 1408,
      "42k": 1409,
      "hogh": 1410,
      "vegan": 1411,
      "hoghock": 1412,
      "40rb": 1413,
      "ol": 1414,
      "72rb": 1415,
      "bil": 1416,
      "pah": 1417,
      "##ux": 1418,
      "##two": 1419,
      "bubur": 1420,
      "##fftwo": 1421,
      "doger": 1422,
      "refftwo": 1423,
      "##dog": 1424,
      "mex": 1425,
      "flav": 1426,
      "bilis": 1427,
      "40k": 1428,
      "60k": 1429,
      "64k": 1430,
      "70k": 1431,
      "##esadi": 1432,
      "caesar": 1433,
      "##gget": 1434,
      "quesadi": 1435,
      "slice": 1436,
      "quesadil": 1437,
      "56rb": 1438,
      "av": 1439,
      "hati": 1440,
      "ocha": 1441,
      "te": 1442,
      "##ben": 1443,
      "##say": 1444,
      "##las": 1445,
      "bac": 1446,
      "nugget": 1447,
      "kukris": 1448,
      "chunks": 1449,
      "##ester": 1450,
      "bursay": 1451,
      "chocolatte": 1452,
      "36k": 1453,
      "##otan": 1454,
      "##olop": 1455,
      "uduk": 1456,
      "##agor": 1457,
      "selolop": 1458,
      "abang": 1459,
      "delux": 1460,
      "kolester": 1461,
      "bacem": 1462,
      "deluxe": 1463,
      "kolesterol": 1464,
      "54k": 1465,
      "##yos": 1466,
      "quesadillas": 1467,
      "rp18rb": 1468,
      "rp45rb": 1469,
      "63k": 1470,
      "hokben": 1471,
      "42rb": 1472,
      "gob": 1473,
      "ju": 1474,
      "japan": 1475,
      "##ana": 1476,
      "##ungan": 1477,
      "sambalado": 1478,
      "risoles": 1479,
      "liwet": 1480,
      "tex": 1481,
      "gobyos": 1482,
      "56k": 1483,
      "##ocado": 1484,
      "216": 1485,
      "##oyor": 1486,
      "nyoyor": 1487,
      "mcd": 1488,
      "juice": 1489,
      "20rb": 1490,
      "cal": 1491,
      "pac": 1492,
      "##usut": 1493,
      "mig": 1494,
      "pisto": 1495,
      "balungan": 1496,
      "parano": 1497,
      "fuyung": 1498,
      "paranoid": 1499,
      "##out": 1500,
      "##urap": 1501,
      "##ebat": 1502,
      "pahebat": 1503,
      "migotan": 1504,
      "63rb": 1505,
      "kusut": 1506,
      "##opa": 1507,
      "rp30rb": 1508,
      "kebu": 1509,
      "hain": 1510,
      "mandhi": 1511,
      "japanese": 1512,
      "12k": 1513,
      "copa": 1514,
      "goch": 1515,
      "mint": 1516,
      "crush": 1517,
      "rp44rb": 1518,
      "rp70rb": 1519,
      "pecelurap": 1520,
      "avocado": 1521,
      "fuyungha": 1522,
      "oven": 1523,
      "##kis": 1524,
      "bub": 1525,
      "##baked": 1526,
      "hijaupotong": 1527,
      "##ujang": 1528,
      "kebuli": 1529,
      "gochujang": 1530,
      "ovenbaked": 1531,
      "24rb": 1532,
      "21rb": 1533,
      "32k": 1534,
      "kw": 1535,
      "lap": 1536,
      "ske": 1537,
      "miram": 1538,
      "rp42rb": 1539,
      "140": 1540,
      "##suke": 1541,
      "##wers": 1542,
      "plate": 1543,
      "skewers": 1544,
      "miramar": 1545,
      "##okah": 1546,
      "rp22": 1547,
      "##bai": 1548,
      "barokah": 1549,
      "fuyunghay": 1550,
      "18rb": 1551,
      "66k": 1552,
      "75k": 1553,
      "##engah": 1554,
      "rp24rb": 1555,
      "sayap": 1556,
      "144": 1557,
      "setengah": 1558,
      "90": 1559,
      "##res": 1560,
      "##ola": 1561,
      "##unch": 1562,
      "21k": 1563,
      "lapis": 1564,
      "pepes": 1565,
      "tsuke": 1566,
      "##obak": 1567,
      "rp64rb": 1568,
      "markis": 1569,
      "tsukemen": 1570,
      "ball": 1571,
      "45k": 1572,
      "52k": 1573,
      "rp19": 1574,
      "guling": 1575,
      "skin": 1576,
      "hainam": 1577,
      "16rb": 1578,
      "75rb": 1579,
      "##enasi": 1580,
      "chop": 1581,
      "cron": 1582,
      "rp63rb": 1583,
      "dagingtelor": 1584,
      "petenasi": 1585,
      "20k": 1586,
      "##sya": 1587,
      "##otak": 1588,
      "##ores": 1589,
      "rp8rb": 1590,
      "##ink": 1591,
      "rp12rb": 1592,
      "rp27rb": 1593,
      "rp54rb": 1594,
      "##oyu": 1595,
      "shoyu": 1596,
      "##tol": 1597,
      "##zone": 1598,
      "pentol": 1599,
      "laos": 1600,
      "corndog": 1601,
      "45rb": 1602,
      "du": 1603,
      "dah": 1604,
      "men": 1605,
      "##elo": 1606,
      "siobak": 1607,
      "##iti": 1608,
      "calzone": 1609,
      "##resso": 1610,
      "##syat": 1611,
      "dahsyat": 1612,
      "25rb": 1613,
      "68rb": 1614,
      "68k": 1615,
      "##seng": 1616,
      "rp24": 1617,
      "cabai": 1618,
      "rp52rb": 1619,
      "##stick": 1620,
      "bubble": 1621,
      "54rb": 1622,
      "64rb": 1623,
      "62k": 1624,
      "geprul": 1625,
      "rp28rb": 1626,
      "bos": 1627,
      "210": 1628,
      "dabu": 1629,
      "sarang": 1630,
      "drum": 1631,
      "34rb": 1632,
      "49rb": 1633,
      "rp50rb": 1634,
      "28rb": 1635,
      "##gil": 1636,
      "semut": 1637,
      "drink": 1638,
      "gy": 1639,
      "##anut": 1640,
      "##otle": 1641,
      "rp66rb": 1642,
      "bosgil": 1643,
      "28k": 1644,
      "34k": 1645,
      "aja": 1646,
      "em": 1647,
      "burrit": 1648,
      "acar": 1649,
      "nutri": 1650,
      "peanut": 1651,
      "puding": 1652,
      "burrito": 1653,
      "cib": 1654,
      "rp28": 1655,
      "rempelo": 1656,
      "chipotle": 1657,
      "kwiti": 1658,
      "markisah": 1659,
      "kwitiaw": 1660,
      "44rb": 1661,
      "##cib": 1662,
      "rp75rb": 1663,
      "onclang": 1664,
      "drumstick": 1665,
      "cibcib": 1666,
      "14k": 1667,
      "dfc": 1668,
      "rog": 1669,
      "##ayam": 1670,
      "rp32rb": 1671,
      "57rb": 1672,
      "kel": 1673,
      "##presso": 1674,
      "##ced": 1675,
      "minced": 1676,
      "rp35rb": 1677,
      "##antan": 1678,
      "banana": 1679,
      "rogout": 1680,
      "62rb": 1681,
      "##ej": 1682,
      "rp25rb": 1683,
      "rp58rb": 1684,
      "3k": 1685,
      "##rot": 1686,
      "10rb": 1687,
      "bebekayam": 1688,
      "embe": 1689,
      "rp21rb": 1690,
      "49k": 1691,
      "27rb": 1692,
      "59rb": 1693,
      "kim": 1694,
      "soup": 1695,
      "cheer": 1696,
      "52rb": 1697,
      "##eche": 1698,
      "rp15rb": 1699,
      "##imantan": 1700,
      "27k": 1701,
      "kalimantan": 1702,
      "44k": 1703,
      "gej": 1704,
      "lola": 1705,
      "reche": 1706,
      "240": 1707,
      "##aiwan": 1708,
      "gejrot": 1709,
      "recheese": 1710,
      "oseng": 1711,
      "tb": 1712,
      "58k": 1713,
      "66rb": 1714,
      "8rb": 1715,
      "kotak": 1716,
      "pie": 1717,
      "##ding": 1718,
      "rp68rb": 1719,
      "hokk": 1720,
      "12rb": 1721,
      "15rb": 1722,
      "38rb": 1723,
      "58rb": 1724,
      "##akar": 1725,
      "bas": 1726,
      "orit": 1727,
      "150": 1728,
      "##oza": 1729,
      "rp74rb": 1730,
      "##aiwanese": 1731,
      "oritaiwanese": 1732,
      "sir": 1733,
      "rp34rb": 1734,
      "pansit": 1735,
      "saril": 1736,
      "pudding": 1737,
      "tbtelor": 1738,
      "50rb": 1739,
      "singap": 1740,
      "sarileci": 1741,
      "35rb": 1742,
      "rp49rb": 1743,
      "nyemek": 1744,
      "gyoza": 1745,
      "47rb": 1746,
      "lid": 1747,
      "rp9rb": 1748,
      "rp23": 1749,
      "rp31rb": 1750,
      "rp65rb": 1751,
      "duo": 1752,
      "singapore": 1753,
      "6k": 1754,
      "##oeng": 1755,
      "rp62rb": 1756,
      "rp67rb": 1757,
      "rp19rb": 1758,
      "rp26rb": 1759,
      "rp39rb": 1760,
      "126": 1761,
      "kampoeng": 1762,
      "amb": 1763,
      "80": 1764,
      "##los": 1765,
      "rp17rb": 1766,
      "57k": 1767,
      "bakmie": 1768,
      "55rb": 1769,
      "50k": 1770,
      "84": 1771,
      "kor": 1772,
      "##apa": 1773,
      "ramenn": 1774,
      "lidah": 1775,
      "16k": 1776,
      "##go": 1777,
      "168": 1778,
      "33k": 1779,
      "15k": 1780,
      "23rb": 1781,
      "26k": 1782,
      "chasi": 1783,
      "rp16rb": 1784,
      "kelapa": 1785,
      "basah": 1786,
      "sur": 1787,
      "rp14rb": 1788,
      "rp46rb": 1789,
      "18k": 1790,
      "##endol": 1791,
      "39rb": 1792,
      "cut": 1793,
      "cendol": 1794,
      "en": 1795,
      "##ite": 1796,
      "47k": 1797,
      "rp37rb": 1798,
      "chasio": 1799,
      "55k": 1800,
      "6rb": 1801,
      "73rb": 1802,
      "96": 1803,
      "##iwang": 1804,
      "##hgoreng": 1805,
      "##alang": 1806,
      "kuhgoreng": 1807,
      "smores": 1808,
      "74rb": 1809,
      "rp61rb": 1810,
      "hokkian": 1811,
      "29rb": 1812,
      "46rb": 1813,
      "##ekele": 1814,
      "17k": 1815,
      "##que": 1816,
      "brekele": 1817,
      "suroboyo": 1818,
      "25k": 1819,
      "sut": 1820,
      "108": 1821,
      "buaya": 1822,
      "rp22rb": 1823,
      "rp41rb": 1824,
      "67k": 1825,
      "14rb": 1826,
      "cemek": 1827,
      "glos": 1828,
      "jakar": 1829,
      "xiwang": 1830,
      "##ass": 1831,
      "rp13rb": 1832,
      "rp27": 1833,
      "sari": 1834,
      "jakarta": 1835,
      "gum": 1836,
      "rp29rb": 1837,
      "39k": 1838,
      "4rb": 1839,
      "cj": 1840,
      "##dw": 1841,
      "360": 1842,
      "manggo": 1843,
      "59k": 1844,
      "69k": 1845,
      "sutos": 1846,
      "glosor": 1847,
      "cjdw": 1848,
      "13rb": 1849,
      "38k": 1850,
      "69rb": 1851,
      "74k": 1852,
      "jomb": 1853,
      "##wak": 1854,
      "10k": 1855,
      "petir": 1856,
      "3rb": 1857,
      "43k": 1858,
      "71k": 1859,
      "7k": 1860,
      "rasa": 1861,
      "penang": 1862,
      "##ine": 1863,
      "rp33rb": 1864,
      "rp71rb": 1865,
      "white": 1866,
      "cornet": 1867,
      "jombotelur": 1868,
      "8k": 1869,
      "288": 1870,
      "53k": 1871,
      "kribo": 1872,
      "##leries": 1873,
      "pacar": 1874,
      "duoble": 1875,
      "cutleries": 1876,
      "tum": 1877,
      "##fu": 1878,
      "##eni": 1879,
      "##est": 1880,
      "rp3rb": 1881,
      "rp53rb": 1882,
      "gulo": 1883,
      "singkong": 1884,
      "5k": 1885,
      "cha": 1886,
      "rp55rb": 1887,
      "soes": 1888,
      "280": 1889,
      "tumis": 1890,
      "bun": 1891,
      "le": 1892,
      "rp23rb": 1893,
      "rp47rb": 1894,
      "strow": 1895,
      "23k": 1896,
      "51k": 1897,
      "frenc": 1898,
      "anget": 1899,
      "hong": 1900,
      "##uit": 1901,
      "##art": 1902,
      "sifoodtelor": 1903,
      "35k": 1904,
      "67rb": 1905,
      "71rb": 1906,
      "be": 1907,
      "##gur": 1908,
      "kup": 1909,
      "kueni": 1910,
      "rp43rb": 1911,
      "rp69rb": 1912,
      "korea": 1913,
      "37rb": 1914,
      "##sh": 1915,
      "##ali": 1916,
      "19k": 1917,
      "strowberry": 1918,
      "7rb": 1919,
      "9k": 1920,
      "jado": 1921,
      "king": 1922,
      "malang": 1923,
      "##eque": 1924,
      "rp25": 1925,
      "kare": 1926,
      "jadoel": 1927,
      "51rb": 1928,
      "##bing": 1929,
      "##yar": 1930,
      "##sion": 1931,
      "teler": 1932,
      "rp11rb": 1933,
      "##antung": 1934,
      "##ulawak": 1935,
      "barbeque": 1936,
      "temulawak": 1937,
      "ambyar": 1938,
      "hongkong": 1939,
      "26rb": 1940,
      "46k": 1941,
      "mel": 1942,
      "nok": 1943,
      "rp6rb": 1944,
      "##ika": 1945,
      "11k": 1946,
      "duren": 1947,
      "sekat": 1948,
      "4k": 1949,
      "dip": 1950,
      "rp7rb": 1951,
      "rp38rb": 1952,
      "brownie": 1953,
      "160": 1954,
      "41k": 1955,
      "anggur": 1956,
      "22k": 1957,
      "kung": 1958,
      "mak": 1959,
      "nm": 1960,
      "##beng": 1961,
      "##oki": 1962,
      "43rb": 1963,
      "65rb": 1964,
      "gantung": 1965,
      "##yit": 1966,
      "##ow": 1967,
      "rp20": 1968,
      "270": 1969,
      "kunyit": 1970,
      "dele": 1971,
      "##wah": 1972,
      "##oklat": 1973,
      "rp10rb": 1974,
      "rp59rb": 1975,
      "fruit": 1976,
      "bengbeng": 1977,
      "bluebery": 1978,
      "11rb": 1979,
      "5rb": 1980,
      "65k": 1981,
      "rp5rb": 1982,
      "##temp": 1983,
      "##ont": 1984,
      "112": 1985,
      "61k": 1986,
      "fusion": 1987,
      "smoothies": 1988,
      "100": 1989,
      "22rb": 1990,
      "coc": 1991,
      "mn": 1992,
      "tam": 1993,
      "##cumi": 1994,
      "char": 1995,
      "##etahu": 1996,
      "rp57rb": 1997,
      "stand": 1998,
      "mesem": 1999,
      "enoki": 2000,
      "9rb": 2001,
      "less": 2002,
      "##iuk": 2003,
      "udangcumi": 2004,
      "13k": 2005,
      "192": 2006,
      "rp73rb": 2007,
      "mesam": 2008,
      "sekali": 2009,
      "##shake": 2010,
      "kungfu": 2011,
      "##tempetahu": 2012,
      "daw": 2013,
      "ked": 2014,
      "##ond": 2015,
      "rp26": 2016,
      "telortempetahu": 2017,
      "blend": 2018,
      "standart": 2019,
      "dawet": 2020,
      "53rb": 2021,
      "jah": 2022,
      "qiuk": 2023,
      "##jar": 2024,
      "##engk": 2025,
      "##opinian": 2026,
      "ifu": 2027,
      "jahe": 2028,
      "qiukopinian": 2029,
      "33rb": 2030,
      "th": 2031,
      "##vel": 2032,
      "tehes": 2033,
      "sirup": 2034,
      "kupie": 2035,
      "dipping": 2036,
      "17rb": 2037,
      "61rb": 2038,
      "manja": 2039,
      "29k": 2040,
      "73k": 2041,
      "nyoklat": 2042,
      "banjar": 2043,
      "mantan": 2044,
      "##esan": 2045,
      "requ": 2046,
      "##kuahgoreng": 2047,
      "level": 2048,
      "request": 2049,
      "gok": 2050,
      "tah": 2051,
      "tehteh": 2052,
      "pake": 2053,
      "skim": 2054,
      "talam": 2055,
      "gokil": 2056,
      "41rb": 2057,
      "sau": 2058,
      "book": 2059,
      "##assar": 2060,
      "makassar": 2061,
      "kam": 2062,
      "ulang": 2063,
      "##bakso": 2064,
      "udangkuahgoreng": 2065,
      "tiam": 2066,
      "tahun": 2067,
      "cake": 2068,
      "punch": 2069,
      "##sotelur": 2070,
      "##yu": 2071,
      "baksotelur": 2072,
      "##bery": 2073,
      "37k": 2074,
      "31rb": 2075,
      "##anak": 2076,
      "rp4rb": 2077,
      "charco": 2078,
      "300": 2079,
      "pu": 2080,
      "##yor": 2081,
      "sushi": 2082,
      "rp51rb": 2083,
      "beranak": 2084,
      "charcoal": 2085,
      "gorengan": 2086,
      "kopyor": 2087,
      "gepang": 2088,
      "rp36": 2089,
      "132": 2090,
      "mozabakso": 2091,
      "melon": 2092,
      "kedelai": 2093,
      "##onom": 2094,
      "##aberry": 2095,
      "##usuk": 2096,
      "252": 2097,
      "nusaberry": 2098,
      "tomat": 2099,
      "blewah": 2100,
      "jelet": 2101,
      "kesan": 2102,
      "lengk": 2103,
      "##ij": 2104,
      "dir": 2105,
      "##ongan": 2106,
      "setan": 2107,
      "capu": 2108,
      "ekspresso": 2109,
      "jeletot": 2110,
      "lengkap": 2111,
      "##ccino": 2112,
      "cappuccino": 2113,
      "kambing": 2114,
      "##egal": 2115,
      "ekonom": 2116,
      "capucino": 2117,
      "ekonomis": 2118,
      "jas": 2119,
      "ares": 2120,
      "beer": 2121,
      "19rb": 2122,
      "ladi": 2123,
      "suk": 2124,
      "hargs": 2125,
      "pancung": 2126,
      "diregal": 2127,
      "ladies": 2128,
      "diregalin": 2129,
      "rusuk": 2130,
      "wong": 2131,
      "wij": 2132,
      "##eroboyo": 2133,
      "soeroboyo": 2134,
      "31k": 2135,
      "lamongan": 2136,
      "bet": 2137,
      "lont": 2138,
      "rud": 2139,
      "selai": 2140,
      "##inasi": 2141,
      "smoothie": 2142,
      "thea": 2143,
      "rudal": 2144,
      "tor": 2145,
      "mauuuuu": 2146,
      "mantap": 2147,
      "jasm": 2148,
      "lontong": 2149,
      "200": 2150,
      "##enis": 2151,
      "rp34": 2152,
      "tip": 2153,
      "tenis": 2154,
      "##hu": 2155,
      "##oe": 2156,
      "jasmine": 2157,
      "kos": 2158,
      "mangk": 2159,
      "rp32": 2160,
      "capc": 2161,
      "wijen": 2162,
      "stow": 2163,
      "tales": 2164,
      "stowbery": 2165,
      "gold": 2166,
      "##ehot": 2167,
      "mininasi": 2168,
      "betawi": 2169,
      "sad": 2170,
      "rp29": 2171,
      "seloyang": 2172,
      "##onde": 2173,
      "##enila": 2174,
      "terasi": 2175,
      "icehot": 2176,
      "guramenila": 2177,
      "capcay": 2178,
      "halus": 2179,
      "kosong": 2180,
      "ronde": 2181,
      "##asara": 2182,
      "rp33": 2183,
      "##abika": 2184,
      "mangkasara": 2185,
      "sadis": 2186,
      "raw": 2187,
      "golden": 2188,
      "ci": 2189,
      "cer": 2190,
      "lump": 2191,
      "##jer": 2192,
      "susus": 2193,
      "frapp": 2194,
      "mente": 2195,
      "blended": 2196,
      "torabika": 2197,
      "##ub": 2198,
      "chee": 2199,
      "empela": 2200,
      "batu": 2201,
      "ciap": 2202,
      "rp37": 2203,
      "138": 2204,
      "220": 2205,
      "##telur": 2206,
      "puyu": 2207,
      "tipker": 2208,
      "regular": 2209,
      "bunt": 2210,
      "tamoe": 2211,
      "puyuh": 2212,
      "sisri": 2213,
      "semp": 2214,
      "pisah": 2215,
      "cheez": 2216,
      "buntut": 2217,
      "uk": 2218,
      "##ae": 2219,
      "##uran": 2220,
      "gepeng": 2221,
      "110": 2222,
      "##imut": 2223,
      "198": 2224,
      "selimut": 2225,
      "mudajer": 2226,
      "ukuran": 2227,
      "mudajeroan": 2228,
      "go": 2229,
      "kap": 2230,
      "sund": 2231,
      "bagong": 2232,
      "##halus": 2233,
      "##gor": 2234,
      "bay": 2235,
      "rp31": 2236,
      "225": 2237,
      "320": 2238,
      "platter": 2239,
      "kasarhalus": 2240,
      "##da": 2241,
      "siia": 2242,
      "petruk": 2243,
      "ekoran": 2244,
      "ekstra": 2245,
      "frappe": 2246,
      "mentega": 2247,
      "siiaapp": 2248,
      "sum": 2249,
      "tob": 2250,
      "##eal": 2251,
      "##andan": 2252,
      "cocop": 2253,
      "lumpia": 2254,
      "##telurteh": 2255,
      "semprit": 2256,
      "melat": 2257,
      "passi": 2258,
      "162": 2259,
      "laut": 2260,
      "cocopandan": 2261,
      "melati": 2262,
      "passion": 2263,
      "sul": 2264,
      "##jan": 2265,
      "105": 2266,
      "spek": 2267,
      "##ulo": 2268,
      "350": 2269,
      "sayurtelurteh": 2270,
      "kobo": 2271,
      "marjan": 2272,
      "sulung": 2273,
      "koboi": 2274,
      "##umput": 2275,
      "batok": 2276,
      "batagor": 2277,
      "rawon": 2278,
      "spekulo": 2279,
      "rumput": 2280,
      "tub": 2281,
      "##araja": 2282,
      "sukaraja": 2283,
      "goong": 2284,
      "##arga": 2285,
      "rp35": 2286,
      "128": 2287,
      "tobler": 2288,
      "tubruk": 2289,
      "88": 2290,
      "gac": 2291,
      "sundae": 2292,
      "toblerone": 2293,
      "gacoan": 2294,
      "siaap": 2295,
      "104": 2296,
      "caffee": 2297,
      "cheezo": 2298,
      "nh": 2299,
      "260": 2300,
      "nharga": 2301,
      "##our": 2302,
      "##eny": 2303,
      "siyap": 2304,
      "kuda": 2305,
      "130": 2306,
      "siyaph": 2307,
      "siapp": 2308,
      "135": 2309,
      "224": 2310,
      "315": 2311,
      "432": 2312,
      "kreny": 2313,
      "shaps": 2314,
      "krenyess": 2315,
      "264": 2316,
      "cereal": 2317,
      "##re": 2318,
      "rp30": 2319,
      "336": 2320,
      "gal": 2321,
      "##cit": 2322,
      "##yaap": 2323,
      "siyaap": 2324,
      "330": 2325,
      "mo": 2326,
      "##bawa": 2327,
      "kapal": 2328,
      "sumbawa": 2329,
      "pong": 2330,
      "##dara": 2331,
      "pencit": 2332,
      "114": 2333,
      "tomyam": 2334,
      "saudara": 2335,
      "sak": 2336,
      "pakai": 2337,
      "mandi": 2338,
      "selamat": 2339,
      "##tagor": 2340,
      "sistagor": 2341,
      "gre": 2342,
      "hey": 2343,
      "mesi": 2344,
      "bobo": 2345,
      "420": 2346,
      "green": 2347,
      "rp39": 2348,
      "204": 2349,
      "galau": 2350,
      "pas": 2351,
      "##aaap": 2352,
      "soon": 2353,
      "504": 2354,
      "kembung": 2355,
      "flavour": 2356,
      "sakura": 2357,
      "heyshake": 2358,
      "mesir": 2359,
      "flavoured": 2360,
      "siaaap": 2361,
      "flavor": 2362,
      "156": 2363,
      "dol": 2364,
      "hea": 2365,
      "rag": 2366,
      "bungk": 2367,
      "222": 2368,
      "jely": 2369,
      "serai": 2370,
      "heaven": 2371,
      "78": 2372,
      "##wa": 2373,
      "dolce": 2374,
      "174": 2375,
      "oncom": 2376,
      "##usss": 2377,
      "ragut": 2378,
      "he": 2379,
      "136": 2380,
      "db": 2381,
      "pic": 2382,
      "186": 2383,
      "baa": 2384,
      "##ollo": 2385,
      "##mer": 2386,
      "##ona": 2387,
      "189": 2388,
      "378": 2389,
      "oce": 2390,
      "flavored": 2391,
      "picollo": 2392,
      "kek": 2393,
      "256": 2394,
      "102": 2395,
      "124": 2396,
      "pastel": 2397,
      "popping": 2398,
      "kekinian": 2399,
      "170": 2400,
      "rp120rb": 2401,
      "hezelnut": 2402,
      "bucin": 2403,
      "196": 2404,
      "kiss": 2405,
      "450": 2406,
      "dal": 2407,
      "##pung": 2408,
      "##tepung": 2409,
      "153": 2410,
      "340": 2411,
      "bertepung": 2412,
      "76": 2413,
      "rp43": 2414,
      "120k": 2415,
      "232": 2416,
      "290": 2417,
      "99": 2418,
      "176": 2419,
      "294": 2420,
      "rp44": 2421,
      "rp41": 2422,
      "208": 2423,
      "306": 2424,
      "tiramishu": 2425,
      "than": 2426,
      "##iz": 2427,
      "312": 2428,
      "babatagor": 2429,
      "dalg": 2430,
      "babatagoran": 2431,
      "uke": 2432,
      "228": 2433,
      "thanks": 2434,
      "dalgona": 2435,
      "98": 2436,
      "mba": 2437,
      "116": 2438,
      "mur": 2439,
      "184": 2440,
      "148": 2441,
      "195": 2442,
      "qey": 2443,
      "##oh": 2444,
      "175": 2445,
      "mauuu": 2446,
      "lattee": 2447,
      "152": 2448,
      "180k": 2449,
      "171": 2450,
      "234": 2451,
      "oc": 2452,
      "pedes": 2453,
      "190": 2454,
      "250": 2455,
      "92": 2456,
      "bolu": 2457,
      "165": 2458,
      "murmer": 2459,
      "400": 2460,
      "mao": 2461,
      "okz": 2462,
      "rp45": 2463,
      "310": 2464,
      "414": 2465,
      "chiku": 2466,
      "##ffle": 2467,
      "272": 2468,
      "324": 2469,
      "440": 2470,
      "noks": 2471,
      "120rb": 2472,
      "230": 2473,
      "rp38": 2474,
      "245": 2475,
      "296": 2476,
      "490": 2477,
      "chikuwa": 2478,
      "rp42": 2479,
      "207": 2480,
      "276": 2481,
      "441": 2482,
      "rp90rb": 2483,
      "81": 2484,
      "180rb": 2485,
      "396": 2486,
      "maau": 2487,
      "##okok": 2488,
      "key": 2489,
      "248": 2490,
      "rp144rb": 2491,
      "okokok": 2492,
      "choh": 2493,
      "##olatte": 2494,
      "144rb": 2495,
      "390": 2496,
      "384": 2497,
      "choholatte": 2498,
      "90rb": 2499,
      "don": 2500,
      "147": 2501,
      "392": 2502,
      "342": 2503,
      "90k": 2504,
      "##lo": 2505,
      "okeh": 2506,
      "rp40": 2507,
      "80rb": 2508,
      "rp240rb": 2509,
      "piz": 2510,
      "sip": 2511,
      "rp46": 2512,
      "168rb": 2513,
      "pizza": 2514,
      "84k": 2515,
      "94": 2516,
      "rp210rb": 2517,
      "408": 2518,
      "280k": 2519,
      "448": 2520,
      "520": 2521,
      "560": 2522,
      "540": 2523,
      "brli": 2524,
      "blueberry": 2525,
      "rp280rb": 2526,
      "mnta": 2527,
      "480": 2528,
      "jal": 2529,
      "sw": 2530,
      "kering": 2531,
      "84rb": 2532,
      "126rb": 2533,
      "140rb": 2534,
      "168k": 2535,
      "rp108rb": 2536,
      "mintk": 2537,
      "112k": 2538,
      "150k": 2539,
      "rp126rb": 2540,
      "117": 2541,
      "108rb": 2542,
      "210k": 2543,
      "240rb": 2544,
      "##uuusss": 2545,
      "630": 2546,
      "bungkuuusss": 2547,
      "bungkuuussss": 2548,
      "pr": 2549,
      "may": 2550,
      "rp140rb": 2551,
      "rp216rb": 2552,
      "rp360rb": 2553,
      "96rb": 2554,
      "80k": 2555,
      "160rb": 2556,
      "noke": 2557,
      "rp168rb": 2558,
      "600": 2559,
      "##eet": 2560,
      "150rb": 2561,
      "266": 2562,
      "rp80rb": 2563,
      "rp150rb": 2564,
      "96k": 2565,
      "##40rb": 2566,
      "rp49": 2567,
      "126k": 2568,
      "219": 2569,
      "142": 2570,
      "164": 2571,
      "240k": 2572,
      "280rb": 2573,
      "108k": 2574,
      "130k": 2575,
      "288rb": 2576,
      "360rb": 2577,
      "rp180rb": 2578,
      "##ish": 2579,
      "rp48": 2580,
      "rp47": 2581,
      "210rb": 2582,
      "146": 2583,
      "140k": 2584,
      "244": 2585,
      "576": 2586,
      "sweet": 2587,
      "##iting": 2588,
      "spag": 2589,
      "118": 2590,
      "258": 2591,
      "moc": 2592,
      "tr": 2593,
      "rp100rb": 2594,
      "188": 2595,
      "288k": 2596,
      "370": 2597,
      "rp132rb": 2598,
      "200rb": 2599,
      "200k": 2600,
      "nbel": 2601,
      "orang": 2602,
      "115": 2603,
      "134": 2604,
      "282": 2605,
      "203": 2606,
      "292": 2607,
      "bli": 2608,
      "kepiting": 2609,
      "nbeli": 2610,
      "rp300rb": 2611,
      "122": 2612,
      "111": 2613,
      "255": 2614,
      "328": 2615,
      "300k": 2616,
      "85": 2617,
      "bks": 2618,
      "182": 2619,
      "177": 2620,
      "270rb": 2621,
      "246": 2622,
      "375": 2623,
      "344": 2624,
      "menta": 2625,
      "orange": 2626,
      "rp51": 2627,
      "185": 2628,
      "141": 2629,
      "270k": 2630,
      "265": 2631,
      "372": 2632,
      "348": 2633,
      "rp192rb": 2634,
      "mnt": 2635,
      "jalok": 2636,
      "300rb": 2637,
      "106": 2638,
      "rp200rb": 2639,
      "213": 2640,
      "216k": 2641,
      "231": 2642,
      "295": 2643,
      "82": 2644,
      "rp52": 2645,
      "rp56": 2646,
      "183": 2647,
      "133": 2648,
      "192k": 2649,
      "rp96rb": 2650,
      "100k": 2651,
      "egg": 2652,
      "##etti": 2653,
      "129": 2654,
      "132rb": 2655,
      "154": 2656,
      "236": 2657,
      "364": 2658,
      "268": 2659,
      "rp84rb": 2660,
      "217": 2661,
      "216rb": 2662,
      "160k": 2663,
      "201": 2664,
      "252k": 2665,
      "366": 2666,
      "357": 2667,
      "mentai": 2668,
      "95": 2669,
      "93": 2670,
      "##30rb": 2671,
      "144k": 2672,
      "172": 2673,
      "243": 2674,
      "308": 2675,
      "rp135rb": 2676,
      "rp224rb": 2677,
      "jag": 2678,
      "102k": 2679,
      "bgks": 2680,
      "215": 2681,
      "204k": 2682,
      "360k": 2683,
      "rp114rb": 2684,
      "rp112rb": 2685,
      "mauuuuuu": 2686,
      "87": 2687,
      "132k": 2688,
      "138k": 2689,
      "192rb": 2690,
      "159": 2691,
      "275": 2692,
      "399": 2693,
      "rp270rb": 2694,
      "spagh": 2695,
      "104k": 2696,
      "125": 2697,
      "128k": 2698,
      "155": 2699,
      "284": 2700,
      "225rb": 2701,
      "318": 2702,
      "86": 2703,
      "maw": 2704,
      "##ato": 2705,
      "105k": 2706,
      "crunch": 2707,
      "123": 2708,
      "110rb": 2709,
      "252rb": 2710,
      "322": 2711,
      "444": 2712,
      "rp160rb": 2713,
      "279": 2714,
      "368": 2715,
      "365": 2716,
      "333": 2717,
      "380": 2718,
      "jagung": 2719,
      "sang": 2720,
      "bisaa": 2721,
      "##ime": 2722,
      "238": 2723,
      "325": 2724,
      "rp288rb": 2725,
      "maoo": 2726,
      "maok": 2727,
      "110k": 2728,
      "162rb": 2729,
      "156rb": 2730,
      "205": 2731,
      "297": 2732,
      "350rb": 2733,
      "rp105rb": 2734,
      "spaghetti": 2735,
      "kore": 2736,
      "##jit": 2737,
      "114k": 2738,
      "304": 2739,
      "351": 2740,
      "430": 2741,
      "416": 2742,
      "450k": 2743,
      "504k": 2744,
      "milkshake": 2745,
      "almon": 2746,
      "korean": 2747,
      "almond": 2748,
      "100rb": 2749,
      "##esh": 2750,
      "##oni": 2751,
      "189k": 2752,
      "198rb": 2753,
      "190k": 2754,
      "220k": 2755,
      "225k": 2756,
      "320k": 2757,
      "525": 2758,
      "nmau": 2759,
      "130rb": 2760,
      "198k": 2761,
      "220rb": 2762,
      "710": 2763,
      "mauuuu": 2764,
      "mai": 2765,
      "mahu": 2766,
      "212": 2767,
      "287": 2768,
      "264k": 2769,
      "352": 2770,
      "355": 2771,
      "423": 2772,
      "438": 2773,
      "413": 2774,
      "567": 2775,
      "##ssss": 2776,
      "rp189rb": 2777,
      "nmw": 2778,
      "rp260rb": 2779,
      "mauuuuuuu": 2780,
      "pedesssss": 2781,
      "sanger": 2782,
      "mw": 2783,
      "squ": 2784,
      "189rb": 2785,
      "135k": 2786,
      "fresh": 2787,
      "224rb": 2788,
      "385": 2789,
      "arep": 2790,
      "pack": 2791,
      "rp252rb": 2792,
      "rp320rb": 2793,
      "fish": 2794,
      "ket": 2795,
      "mauk": 2796,
      "128rb": 2797,
      "156k": 2798,
      "320rb": 2799,
      "345": 2800,
      "450rb": 2801,
      "528": 2802,
      "670": 2803,
      "rp174rb": 2804,
      "rp336rb": 2805,
      "mojit": 2806,
      "##ark": 2807,
      "105rb": 2808,
      "138rb": 2809,
      "135rb": 2810,
      "145": 2811,
      "273": 2812,
      "235": 2813,
      "329": 2814,
      "376": 2815,
      "378k": 2816,
      "496": 2817,
      "512": 2818,
      "650": 2819,
      "##uuuuuuuu": 2820,
      "rp225rb": 2821,
      "rp196rb": 2822,
      "bungkuuuuuuuu": 2823,
      "mbaa": 2824,
      "bungkuuuuuuuuusss": 2825,
      "77": 2826,
      "76rb": 2827,
      "91": 2828,
      "pot": 2829,
      "##ji": 2830,
      "mauu": 2831,
      "161": 2832,
      "285": 2833,
      "260k": 2834,
      "315rb": 2835,
      "371": 2836,
      "354": 2837,
      "410": 2838,
      "berry": 2839,
      "bre": 2840,
      "rp102rb": 2841,
      "rp170rb": 2842,
      "##ade": 2843,
      "espresso": 2844,
      "119": 2845,
      "259": 2846,
      "336rb": 2847,
      "301": 2848,
      "455": 2849,
      "470": 2850,
      "522": 2851,
      "462": 2852,
      "464": 2853,
      "530": 2854,
      "504rb": 2855,
      "and": 2856,
      "rp104rb": 2857,
      "78k": 2858,
      "162k": 2859,
      "196rb": 2860,
      "stick": 2861,
      "204rb": 2862,
      "434": 2863,
      "405": 2864,
      "476": 2865,
      "486": 2866,
      "rp128rb": 2867,
      "rp162rb": 2868,
      "nmaw": 2869,
      "rp432rb": 2870,
      "102rb": 2871,
      "112rb": 2872,
      "116rb": 2873,
      "136rb": 2874,
      "manisss": 2875,
      "171rb": 2876,
      "##ull": 2877,
      "472": 2878,
      "387": 2879,
      "rp156rb": 2880,
      "rp245rb": 2881,
      "rp330rb": 2882,
      "maauuu": 2883,
      "mojito": 2884,
      "500": 2885,
      "88rb": 2886,
      "##uffle": 2887,
      "##gus": 2888,
      "##isss": 2889,
      "rp59": 2890,
      "124k": 2891,
      "296k": 2892,
      "330k": 2893,
      "424": 2894,
      "518": 2895,
      "513": 2896,
      "468": 2897,
      "580": 2898,
      "nmo": 2899,
      "mnisss": 2900,
      "117k": 2901,
      "230k": 2902,
      "256k": 2903,
      "369": 2904,
      "261": 2905,
      "426": 2906,
      "420rb": 2907,
      "510": 2908,
      "511": 2909,
      "620": 2910,
      "rp138rb": 2911,
      "rp136rb": 2912,
      "crunchy": 2913,
      "gel": 2914,
      "ms": 2915,
      "##kn": 2916,
      "bunggus": 2917,
      "rp55": 2918,
      "186rb": 2919,
      "264rb": 2920,
      "420k": 2921,
      "477": 2922,
      "544": 2923,
      "469": 2924,
      "610": 2925,
      "648": 2926,
      "otak": 2927,
      "rp234rb": 2928,
      "rp204rb": 2929,
      "mskn": 2930,
      "88k": 2931,
      "##af": 2932,
      "##ash": 2933,
      "104rb": 2934,
      "116k": 2935,
      "276rb": 2936,
      "272k": 2937,
      "312k": 2938,
      "315k": 2939,
      "305": 2940,
      "488": 2941,
      "460": 2942,
      "585": 2943,
      "558": 2944,
      "sauce": 2945,
      "rp450rb": 2946,
      "76k": 2947,
      "92rb": 2948,
      "big": 2949,
      "136k": 2950,
      "148rb": 2951,
      "175k": 2952,
      "208k": 2953,
      "312rb": 2954,
      "330rb": 2955,
      "406": 2956,
      "603": 2957,
      "rp88rb": 2958,
      "rp250rb": 2959,
      "rp350rb": 2960,
      "mocha": 2961,
      "700": 2962,
      "78rb": 2963,
      "full": 2964,
      "pepper": 2965,
      "184rb": 2966,
      "114rb": 2967,
      "276k": 2968,
      "rp78rb": 2969,
      "342k": 2970,
      "639": 2971,
      "675": 2972,
      "657": 2973,
      "croffle": 2974,
      "rp130rb": 2975,
      "rp81rb": 2976,
      "rp198rb": 2977,
      "donat": 2978,
      "92k": 2979,
      "rp57": 2980,
      "152rb": 2981,
      "175rb": 2982,
      "343": 2983,
      "497": 2984,
      "490rb": 2985,
      "sausage": 2986,
      "rp124rb": 2987,
      "rp186rb": 2988,
      "rp176rb": 2989,
      "truffle": 2990,
      "coco": 2991,
      "ori": 2992,
      "rp58": 2993,
      "147k": 2994,
      "176rb": 2995,
      "170k": 2996,
      "250rb": 2997,
      "336k": 2998,
      "495": 2999,
      "448k": 3000,
      "402": 3001,
      "483": 3002,
      "##ipik": 3003,
      "keripik": 3004,
      "rp220rb": 3005,
      "gelem": 3006,
      "pork": 3007,
      "190rb": 3008,
      "392rb": 3009,
      "350k": 3010,
      "456": 3011,
      "536": 3012,
      "570": 3013,
      "690": 3014,
      "666": 3015,
      "rp110rb": 3016,
      "rp165rb": 3017,
      "rp230rb": 3018,
      "mbaak": 3019,
      "kangk": 3020,
      "sand": 3021,
      "147rb": 3022,
      "152k": 3023,
      "228rb": 3024,
      "207rb": 3025,
      "290rb": 3026,
      "310k": 3027,
      "335": 3028,
      "324rb": 3029,
      "427": 3030,
      "592": 3031,
      "590": 3032,
      "550": 3033,
      "750": 3034,
      "milky": 3035,
      "rp117rb": 3036,
      "rp222rb": 3037,
      "rp310rb": 3038,
      "rp420rb": 3039,
      "potato": 3040,
      "kangkung": 3041,
      "bng": 3042,
      "flo": 3043,
      "long": 3044,
      "mb": 3045,
      "##ma": 3046,
      "194": 3047,
      "158": 3048,
      "272rb": 3049,
      "208rb": 3050,
      "260rb": 3051,
      "490k": 3052,
      "549": 3053,
      "584": 3054,
      "720": 3055,
      "660": 3056,
      "680": 3057,
      "beras": 3058,
      "rp116rb": 3059,
      "rp296rb": 3060,
      "ketan": 3061,
      "bngks": 3062,
      "400rb": 3063,
      "is": 3064,
      "##bis": 3065,
      "##urt": 3066,
      "##each": 3067,
      "rp50": 3068,
      "174rb": 3069,
      "248rb": 3070,
      "294k": 3071,
      "414k": 3072,
      "448rb": 3073,
      "612": 3074,
      "vanila": 3075,
      "shake": 3076,
      "rp147rb": 3077,
      "rp152rb": 3078,
      "rp272rb": 3079,
      "rp207rb": 3080,
      "rp264rb": 3081,
      "rp312rb": 3082,
      "bomb": 3083,
      "cup": 3084,
      "##nam": 3085,
      "188rb": 3086,
      "165k": 3087,
      "153rb": 3088,
      "153k": 3089,
      "174k": 3090,
      "176k": 3091,
      "245rb": 3092,
      "224k": 3093,
      "232k": 3094,
      "234k": 3095,
      "378rb": 3096,
      "392k": 3097,
      "306k": 3098,
      "568": 3099,
      "594": 3100,
      "rp232rb": 3101,
      "rp256rb": 3102,
      "rp208rb": 3103,
      "rp342rb": 3104,
      "rp306rb": 3105,
      "rp448rb": 3106,
      "donut": 3107,
      "bisaaa": 3108,
      "squash": 3109,
      "peach": 3110,
      "186k": 3111,
      "dog": 3112,
      "228k": 3113,
      "370rb": 3114,
      "rp76rb": 3115,
      "306rb": 3116,
      "408k": 3117,
      "459": 3118,
      "640": 3119,
      "621": 3120,
      "740": 3121,
      "rp94rb": 3122,
      "rp92rb": 3123,
      "rp340rb": 3124,
      "rp390rb": 3125,
      "81rb": 3126,
      "tn": 3127,
      "the": 3128,
      "##jang": 3129,
      "kakap": 3130,
      "##ikaya": 3131,
      "rp540rb": 3132,
      "rp66": 3133,
      "124rb": 3134,
      "145rb": 3135,
      "170rb": 3136,
      "370k": 3137,
      "480k": 3138,
      "531": 3139,
      "lemonade": 3140,
      "rp248rb": 3141,
      "rp370rb": 3142,
      "rp396rb": 3143,
      "leg": 3144,
      "sun": 3145,
      "##wic": 3146,
      "##ve": 3147,
      "chik": 3148,
      "masss": 3149,
      "166": 3150,
      "222k": 3151,
      "390rb": 3152,
      "342rb": 3153,
      "mamas": 3154,
      "rp98rb": 3155,
      "rp560rb": 3156,
      "sandwic": 3157,
      "massss": 3158,
      "sandwich": 3159,
      "bz": 3160,
      "dark": 3161,
      "##ua": 3162,
      "##ft": 3163,
      "##ani": 3164,
      "maz": 3165,
      "crab": 3166,
      "##emium": 3167,
      "bisco": 3168,
      "rp600rb": 3169,
      "245k": 3170,
      "222rb": 3171,
      "294rb": 3172,
      "250k": 3173,
      "324k": 3174,
      "440rb": 3175,
      "384k": 3176,
      "560rb": 3177,
      "730": 3178,
      "rp93rb": 3179,
      "##poki": 3180,
      "rp153rb": 3181,
      "rp175rb": 3182,
      "rp294rb": 3183,
      "rp378rb": 3184,
      "rp440rb": 3185,
      "premium": 3186,
      "float": 3187,
      "98rb": 3188,
      "98k": 3189,
      "ho": 3190,
      "lot": 3191,
      "nen": 3192,
      "sr": 3193,
      "##ert": 3194,
      "rp54": 3195,
      "148k": 3196,
      "232rb": 3197,
      "toppoki": 3198,
      "340rb": 3199,
      "432rb": 3200,
      "552": 3201,
      "rp99rb": 3202,
      "rp148rb": 3203,
      "rp141rb": 3204,
      "rp228rb": 3205,
      "##orest": 3206,
      "rp285rb": 3207,
      "rp276rb": 3208,
      "rp315rb": 3209,
      "rp504rb": 3210,
      "biscoff": 3211,
      "lotus": 3212,
      "81k": 3213,
      "##eme": 3214,
      "rp400rb": 3215,
      "rp62": 3216,
      "182rb": 3217,
      "196k": 3218,
      "244k": 3219,
      "248k": 3220,
      "234rb": 3221,
      "205rb": 3222,
      "256rb": 3223,
      "432k": 3224,
      "384rb": 3225,
      "rp408rb": 3226,
      "nenas": 3227,
      "##bs": 3228,
      "biji": 3229,
      "rp53": 3230,
      "rp630rb": 3231,
      "212k": 3232,
      "226": 3233,
      "mozz": 3234,
      "296rb": 3235,
      "290k": 3236,
      "441k": 3237,
      "520rb": 3238,
      "576rb": 3239,
      "loaf": 3240,
      "bsa": 3241,
      "rp205rb": 3242,
      "rp324rb": 3243,
      "rp392rb": 3244,
      "rp414rb": 3245,
      "99k": 3246,
      "kl": 3247,
      "yog": 3248,
      "bul": 3249,
      "biza": 3250,
      "rp61": 3251,
      "184k": 3252,
      "113": 3253,
      "111k": 3254,
      "137": 3255,
      "133rb": 3256,
      "142rb": 3257,
      "142k": 3258,
      "145k": 3259,
      "178": 3260,
      "223": 3261,
      "##chi": 3262,
      "390k": 3263,
      "440k": 3264,
      "408rb": 3265,
      "520k": 3266,
      "540k": 3267,
      "576k": 3268,
      "rp142rb": 3269,
      "rp184rb": 3270,
      "rp172rb": 3271,
      "rp171rb": 3272,
      "rp236rb": 3273,
      "rp384rb": 3274,
      "bread": 3275,
      "isa": 3276,
      "srikaya": 3277,
      "87k": 3278,
      "94k": 3279,
      "bir": 3280,
      "ist": 3281,
      "ki": 3282,
      "od": 3283,
      "oat": 3284,
      "pd": 3285,
      "to": 3286,
      "##bang": 3287,
      "chi": 3288,
      "##onut": 3289,
      "tart": 3290,
      "rp65": 3291,
      "125rb": 3292,
      "217k": 3293,
      "195rb": 3294,
      "171k": 3295,
      "207k": 3296,
      "316": 3297,
      "310rb": 3298,
      "333rb": 3299,
      "375k": 3300,
      "304k": 3301,
      "441rb": 3302,
      "kerang": 3303,
      "rp119rb": 3304,
      "rp164rb": 3305,
      "rp212rb": 3306,
      "rp219rb": 3307,
      "rp190rb": 3308,
      "coconut": 3309,
      "rp268rb": 3310,
      "rp290rb": 3311,
      "##loin": 3312,
      "istime": 3313,
      "pdng": 3314,
      "89": 3315,
      "85rb": 3316,
      "86k": 3317,
      "can": 3318,
      "dess": 3319,
      "iso": 3320,
      "##aas": 3321,
      "maaas": 3322,
      "123rb": 3323,
      "129k": 3324,
      "sob": 3325,
      "151": 3326,
      "273k": 3327,
      "206": 3328,
      "366rb": 3329,
      "338": 3330,
      "305k": 3331,
      "pink": 3332,
      "rp134rb": 3333,
      "rp195rb": 3334,
      "rp348rb": 3335,
      "rp520rb": 3336,
      "chiken": 3337,
      "mozzar": 3338,
      "yogurt": 3339,
      "dessert": 3340,
      "maaasss": 3341,
      "79": 3342,
      "91k": 3343,
      "lime": 3344,
      "nbis": 3345,
      "##ple": 3346,
      "##oka": 3347,
      "185rb": 3348,
      "146rb": 3349,
      "195k": 3350,
      "278": 3351,
      "230rb": 3352,
      "202": 3353,
      "259rb": 3354,
      "325rb": 3355,
      "396rb": 3356,
      "308k": 3357,
      "baby": 3358,
      "rp188rb": 3359,
      "rp185rb": 3360,
      "rp328rb": 3361,
      "legit": 3362,
      "nbisa": 3363,
      "86rb": 3364,
      "94rb": 3365,
      "kur": 3366,
      "kit": 3367,
      "mz": 3368,
      "nanas": 3369,
      "##ou": 3370,
      "181": 3371,
      "117rb": 3372,
      "134rb": 3373,
      "193": 3374,
      "179": 3375,
      "172rb": 3376,
      "242": 3377,
      "249": 3378,
      "243k": 3379,
      "258k": 3380,
      "366k": 3381,
      "262": 3382,
      "268rb": 3383,
      "318k": 3384,
      "340k": 3385,
      "540rb": 3386,
      "rp217rb": 3387,
      "rp261rb": 3388,
      "rp343rb": 3389,
      "rp375rb": 3390,
      "rp416rb": 3391,
      "rp480rb": 3392,
      "istimewa": 3393,
      "600k": 3394,
      "85k": 3395,
      "bika": 3396,
      "lum": 3397,
      "##io": 3398,
      "##ory": 3399,
      "##ame": 3400,
      "##apu": 3401,
      "##icha": 3402,
      "109": 3403,
      "##oda": 3404,
      "rp640rb": 3405,
      "183rb": 3406,
      "115k": 3407,
      "215rb": 3408,
      "197": 3409,
      "154k": 3410,
      "246rb": 3411,
      "287rb": 3412,
      "236k": 3413,
      "291": 3414,
      "254": 3415,
      "265k": 3416,
      "301k": 3417,
      "##uder": 3418,
      "bluder": 3419,
      "single": 3420,
      "rp125rb": 3421,
      "rp115rb": 3422,
      "rp161rb": 3423,
      "rp275rb": 3424,
      "rp354rb": 3425,
      "rp441rb": 3426,
      "rp385rb": 3427,
      "rp490rb": 3428,
      "rp576rb": 3429,
      "bombol": 3430,
      "mozzarella": 3431,
      "600rb": 3432,
      "83": 3433,
      "hal": 3434,
      "soda": 3435,
      "##ater": 3436,
      "##tea": 3437,
      "106rb": 3438,
      "121": 3439,
      "134k": 3440,
      "214": 3441,
      "213rb": 3442,
      "169": 3443,
      "165rb": 3444,
      "161k": 3445,
      "279rb": 3446,
      "238rb": 3447,
      "231rb": 3448,
      "238k": 3449,
      "299": 3450,
      "362": 3451,
      "267": 3452,
      "396k": 3453,
      "308rb": 3454,
      "343k": 3455,
      "352k": 3456,
      "406rb": 3457,
      "630k": 3458,
      "480rb": 3459,
      "380k": 3460,
      "meat": 3461,
      "##lio": 3462,
      "rp111rb": 3463,
      "rp133rb": 3464,
      "rp238rb": 3465,
      "rp235rb": 3466,
      "ambon": 3467,
      "rp364rb": 3468,
      "rp308rb": 3469,
      "tnp": 3470,
      "odeng": 3471,
      "400k": 3472,
      "95rb": 3473,
      "99rb": 3474,
      "95k": 3475,
      "fl": 3476,
      "pur": 3477,
      "rai": 3478,
      "sag": 3479,
      "tte": 3480,
      "tori": 3481,
      "##rap": 3482,
      "##aline": 3483,
      "##ism": 3484,
      "101": 3485,
      "107": 3486,
      "##epon": 3487,
      "rp67": 3488,
      "122k": 3489,
      "123k": 3490,
      "119rb": 3491,
      "133k": 3492,
      "143": 3493,
      "141k": 3494,
      "177rb": 3495,
      "274": 3496,
      "275rb": 3497,
      "209": 3498,
      "261k": 3499,
      "325k": 3500,
      "345rb": 3501,
      "426rb": 3502,
      "495k": 3503,
      "497k": 3504,
      "402rb": 3505,
      "510rb": 3506,
      "640rb": 3507,
      "##ogi": 3508,
      "rp87rb": 3509,
      "rp215rb": 3510,
      "rp244rb": 3511,
      "rp246rb": 3512,
      "rp279rb": 3513,
      "rp255rb": 3514,
      "rp201rb": 3515,
      "rp292rb": 3516,
      "rp376rb": 3517,
      "rp318rb": 3518,
      "rp410rb": 3519,
      "rp405rb": 3520,
      "raisin": 3521,
      "500k": 3522,
      "82k": 3523,
      "91rb": 3524,
      "93k": 3525,
      "cim": 3526,
      "korn": 3527,
      "lu": 3528,
      "mm": 3529,
      "sn": 3530,
      "##kat": 3531,
      "##bar": 3532,
      "##ise": 3533,
      "##ili": 3534,
      "183k": 3535,
      "139": 3536,
      "219rb": 3537,
      "164rb": 3538,
      "164k": 3539,
      "173": 3540,
      "246k": 3541,
      "282rb": 3542,
      "239": 3543,
      "##ack": 3544,
      "297rb": 3545,
      "258rb": 3546,
      "369k": 3547,
      "322k": 3548,
      "329k": 3549,
      "376rb": 3550,
      "424rb": 3551,
      "496rb": 3552,
      "414rb": 3553,
      "405k": 3554,
      "511rb": 3555,
      "464k": 3556,
      "550k": 3557,
      "meses": 3558,
      "rp146rb": 3559,
      "chips": 3560,
      "rp345rb": 3561,
      "rp372rb": 3562,
      "praline": 3563,
      "sobek": 3564,
      "lumer": 3565,
      "kornet": 3566,
      "mmz": 3567,
      "77k": 3568,
      "sc": 3569,
      "wrap": 3570,
      "##sak": 3571,
      "##ge": 3572,
      "siram": 3573,
      "baw": 3574,
      "##okki": 3575,
      "##ago": 3576,
      "##ffon": 3577,
      "rp60": 3578,
      "127": 3579,
      "182k": 3580,
      "141rb": 3581,
      "286": 3582,
      "285rb": 3583,
      "203k": 3584,
      "292rb": 3585,
      "292k": 3586,
      "297k": 3587,
      "266rb": 3588,
      "318rb": 3589,
      "327": 3590,
      "329rb": 3591,
      "372rb": 3592,
      "302": 3593,
      "tanp": 3594,
      "434k": 3595,
      "410k": 3596,
      "416k": 3597,
      "567k": 3598,
      "468rb": 3599,
      "610k": 3600,
      "rp86rb": 3601,
      "rp106rb": 3602,
      "rp155rb": 3603,
      "rp231rb": 3604,
      "rp365rb": 3605,
      "rp305rb": 3606,
      "rp438rb": 3607,
      "rp444rb": 3608,
      "chiffon": 3609,
      "93rb": 3610,
      "at": 3611,
      "ros": 3612,
      "ski": 3613,
      "un": 3614,
      "##ppy": 3615,
      "##les": 3616,
      "##mel": 3617,
      "##int": 3618,
      "bolog": 3619,
      "panjang": 3620,
      "sabi": 3621,
      "rp63": 3622,
      "122rb": 3623,
      "185k": 3624,
      "118rb": 3625,
      "217rb": 3626,
      "146k": 3627,
      "177k": 3628,
      "271": 3629,
      "282k": 3630,
      "285k": 3631,
      "236rb": 3632,
      "235k": 3633,
      "231k": 3634,
      "205k": 3635,
      "298": 3636,
      "365k": 3637,
      "339": 3638,
      "372k": 3639,
      "rp77rb": 3640,
      "434rb": 3641,
      "405rb": 3642,
      "630rb": 3643,
      "477rb": 3644,
      "483rb": 3645,
      "kerapu": 3646,
      "rp122rb": 3647,
      "rp85rb": 3648,
      "rp177rb": 3649,
      "rp335rb": 3650,
      "rp304rb": 3651,
      "rp464rb": 3652,
      "skippy": 3653,
      "bologn": 3654,
      "700k": 3655,
      "82rb": 3656,
      "water": 3657,
      "##ball": 3658,
      "##tu": 3659,
      "##eu": 3660,
      "##gogi": 3661,
      "##esee": 3662,
      "chili": 3663,
      "##opic": 3664,
      "##son": 3665,
      "bob": 3666,
      "rp530rb": 3667,
      "187": 3668,
      "115rb": 3669,
      "soft": 3670,
      "131": 3671,
      "211": 3672,
      "159k": 3673,
      "172k": 3674,
      "244rb": 3675,
      "243rb": 3676,
      "284rb": 3677,
      "284k": 3678,
      "221": 3679,
      "365rb": 3680,
      "265rb": 3681,
      "375rb": 3682,
      "371rb": 3683,
      "376k": 3684,
      "309": 3685,
      "305rb": 3686,
      "344rb": 3687,
      "427k": 3688,
      "513k": 3689,
      "470k": 3690,
      "387rb": 3691,
      "385k": 3692,
      "710rb": 3693,
      "580k": 3694,
      "550rb": 3695,
      "621k": 3696,
      "carte": 3697,
      "bagel": 3698,
      "brul": 3699,
      "talas": 3700,
      "rp129rb": 3701,
      "apple": 3702,
      "rp82rb": 3703,
      "rp182rb": 3704,
      "rp154rb": 3705,
      "rp273rb": 3706,
      "rp258rb": 3707,
      "rp430rb": 3708,
      "rp434rb": 3709,
      "rp413rb": 3710,
      "rp486rb": 3711,
      "rp477rb": 3712,
      "tropic": 3713,
      "bulgogi": 3714,
      "bawal": 3715,
      "rp603rb": 3716,
      "87rb": 3717,
      "forest": 3718,
      "ka": 3719,
      "pap": 3720,
      "pep": 3721,
      "tap": 3722,
      "trip": 3723,
      "##rbon": 3724,
      "chesee": 3725,
      "sil": 3726,
      "##ilan": 3727,
      "carbon": 3728,
      "125k": 3729,
      "118k": 3730,
      "218": 3731,
      "149": 3732,
      "154rb": 3733,
      "273rb": 3734,
      "247": 3735,
      "203rb": 3736,
      "261rb": 3737,
      "266k": 3738,
      "317": 3739,
      "335k": 3740,
      "rp740rb": 3741,
      "348rb": 3742,
      "356": 3743,
      "357rb": 3744,
      "357k": 3745,
      "kari": 3746,
      "423k": 3747,
      "497rb": 3748,
      "444rb": 3749,
      "549rb": 3750,
      "531k": 3751,
      "590k": 3752,
      "without": 3753,
      "rp91rb": 3754,
      "rp118rb": 3755,
      "rp159rb": 3756,
      "puff": 3757,
      "rp368rb": 3758,
      "rp297rb": 3759,
      "rp301rb": 3760,
      "rp380rb": 3761,
      "rp488rb": 3762,
      "rp472rb": 3763,
      "rp594rb": 3764,
      "mbaakk": 3765,
      "rp660rb": 3766,
      "rp639rb": 3767,
      "77rb": 3768,
      "700rb": 3769,
      "97": 3770,
      "ad": 3771,
      "cu": 3772,
      "ceu": 3773,
      "ebi": 3774,
      "kani": 3775,
      "mol": 3776,
      "nas": 3777,
      "past": 3778,
      "ro": 3779,
      "sta": 3780,
      "tig": 3781,
      "##let": 3782,
      "##sir": 3783,
      "##ers": 3784,
      "pesto": 3785,
      "103": 3786,
      "##tail": 3787,
      "bisya": 3788,
      "188k": 3789,
      "119k": 3790,
      "219k": 3791,
      "155rb": 3792,
      "155k": 3793,
      "cinnam": 3794,
      "topokki": 3795,
      "253": 3796,
      "259k": 3797,
      "368k": 3798,
      "263": 3799,
      "269": 3800,
      "268k": 3801,
      "332": 3802,
      "322rb": 3803,
      "303": 3804,
      "304rb": 3805,
      "343rb": 3806,
      "344k": 3807,
      "352rb": 3808,
      "tanah": 3809,
      "423rb": 3810,
      "455rb": 3811,
      "525k": 3812,
      "388": 3813,
      "387k": 3814,
      "460rb": 3815,
      "468k": 3816,
      "530rb": 3817,
      "710k": 3818,
      "690k": 3819,
      "612k": 3820,
      "##oge": 3821,
      "657rb": 3822,
      "620rb": 3823,
      "love": 3824,
      "rp95rb": 3825,
      "bean": 3826,
      "rp203rb": 3827,
      "rp344rb": 3828,
      "rp371rb": 3829,
      "rp355rb": 3830,
      "rp351rb": 3831,
      "rp357rb": 3832,
      "rp455rb": 3833,
      "rp426rb": 3834,
      "rp468rb": 3835,
      "rp497rb": 3836,
      "rp528rb": 3837,
      "rp549rb": 3838,
      "sagu": 3839,
      "rp670rb": 3840,
      "tropical": 3841,
      "pastry": 3842,
      "cinnamon": 3843,
      "bit": 3844,
      "cak": 3845,
      "cand": 3846,
      "fura": 3847,
      "makar": 3848,
      "nood": 3849,
      "pa": 3850,
      "wa": 3851,
      "##ye": 3852,
      "##cur": 3853,
      "##ard": 3854,
      "bacon": 3855,
      "##ino": 3856,
      "106k": 3857,
      "creme": 3858,
      "spark": 3859,
      "##bow": 3860,
      "cay": 3861,
      "hotdog": 3862,
      "215k": 3863,
      "213k": 3864,
      "maryam": 3865,
      "191": 3866,
      "159rb": 3867,
      "201rb": 3868,
      "295rb": 3869,
      "333k": 3870,
      "399k": 3871,
      "tempura": 3872,
      "348k": 3873,
      "355rb": 3874,
      "427rb": 3875,
      "415": 3876,
      "402k": 3877,
      "472rb": 3878,
      "522rb": 3879,
      "568rb": 3880,
      "567rb": 3881,
      "460k": 3882,
      "469rb": 3883,
      "570rb": 3884,
      "##ido": 3885,
      "594k": 3886,
      "660k": 3887,
      "rp123rb": 3888,
      "rain": 3889,
      "rp284rb": 3890,
      "rp259rb": 3891,
      "rp325rb": 3892,
      "rp329rb": 3893,
      "rp295rb": 3894,
      "rp399rb": 3895,
      "rp427rb": 3896,
      "rp568rb": 3897,
      "rp567rb": 3898,
      "rp590rb": 3899,
      "rp550rb": 3900,
      "otakotak": 3901,
      "rp585rb": 3902,
      "mbg": 3903,
      "rp666rb": 3904,
      "rp621rb": 3905,
      "klepon": 3906,
      "bomboloni": 3907,
      "##melon": 3908,
      "triple": 3909,
      "carbonara": 3910,
      "molen": 3911,
      "makaroni": 3912,
      "500rb": 3913,
      "ag": 3914,
      "gi": 3915,
      "hom": 3916,
      "ja": 3917,
      "op": 3918,
      "tul": 3919,
      "wag": 3920,
      "##wi": 3921,
      "##yani": 3922,
      "##cis": 3923,
      "##oro": 3924,
      "##ust": 3925,
      "##ica": 3926,
      "##key": 3927,
      "##oli": 3928,
      "##ita": 3929,
      "##igh": 3930,
      "##ost": 3931,
      "##bay": 3932,
      "##ffin": 3933,
      "129rb": 3934,
      "sour": 3935,
      "212rb": 3936,
      "163": 3937,
      "157": 3938,
      "277": 3939,
      "275k": 3940,
      "281": 3941,
      "##ender": 3942,
      "363": 3943,
      "368rb": 3944,
      "314": 3945,
      "334": 3946,
      "326": 3947,
      "328rb": 3948,
      "328k": 3949,
      "rp730rb": 3950,
      "tth": 3951,
      "413k": 3952,
      "406k": 3953,
      "512k": 3954,
      "456rb": 3955,
      "522k": 3956,
      "544rb": 3957,
      "670k": 3958,
      "redv": 3959,
      "648k": 3960,
      "650rb": 3961,
      "657k": 3962,
      "666k": 3963,
      "pear": 3964,
      "blackpap": 3965,
      "polo": 3966,
      "muffin": 3967,
      "rp166rb": 3968,
      "rp158rb": 3969,
      "rp243rb": 3970,
      "rp282rb": 3971,
      "rp456rb": 3972,
      "rp462rb": 3973,
      "rp496rb": 3974,
      "biryani": 3975,
      "rp650rb": 3976,
      "half": 3977,
      "rainbow": 3978,
      "tulang": 3979,
      "wagyu": 3980,
      "gand": 3981,
      "kaya": 3982,
      "mbk": 3983,
      "nast": 3984,
      "po": 3985,
      "pal": 3986,
      "qz": 3987,
      "teb": 3988,
      "tender": 3989,
      "##ky": 3990,
      "##uz": 3991,
      "##cs": 3992,
      "##car": 3993,
      "##ott": 3994,
      "##buri": 3995,
      "chiz": 3996,
      "mis": 3997,
      "##ell": 3998,
      "##ata": 3999,
      "crum": 4000,
      "##ampa": 4001,
      "str": 4002,
      "289": 4003,
      "227": 4004,
      "235rb": 4005,
      "255rb": 4006,
      "364rb": 4007,
      "369rb": 4008,
      "319": 4009,
      "337": 4010,
      "301rb": 4011,
      "341": 4012,
      "346": 4013,
      "354rb": 4014,
      "354k": 4015,
      "430rb": 4016,
      "416rb": 4017,
      "444k": 4018,
      "459k": 4019,
      "470rb": 4020,
      "472k": 4021,
      "477k": 4022,
      "525rb": 4023,
      "380rb": 4024,
      "560k": 4025,
      "530k": 4026,
      "590rb": 4027,
      "594rb": 4028,
      "592k": 4029,
      "603k": 4030,
      "584rb": 4031,
      "585rb": 4032,
      "552k": 4033,
      "720k": 4034,
      "650k": 4035,
      "666rb": 4036,
      "arab": 4037,
      "750rb": 4038,
      "750k": 4039,
      "680k": 4040,
      "krispy": 4041,
      "##qua": 4042,
      "cheesec": 4043,
      "american": 4044,
      "rp287rb": 4045,
      "sirloin": 4046,
      "buncis": 4047,
      "rp265rb": 4048,
      "rp366rb": 4049,
      "rp369rb": 4050,
      "suka": 4051,
      "rp322rb": 4052,
      "ceres": 4053,
      "rp352rb": 4054,
      "rp459rb": 4055,
      "rp402rb": 4056,
      "rp469rb": 4057,
      "rp495rb": 4058,
      "mochi": 4059,
      "mbaaa": 4060,
      "rp612rb": 4061,
      "snack": 4062,
      "brulee": 4063,
      "kailan": 4064,
      "silver": 4065,
      "noodle": 4066,
      "redvelvet": 4067,
      "nastar": 4068,
      "air": 4069,
      "aqua": 4070,
      "dod": 4071,
      "fam": 4072,
      "gua": 4073,
      "mal": 4074,
      "nip": 4075,
      "oy": 4076,
      "out": 4077,
      "pel": 4078,
      "tong": 4079,
      "tampa": 4080,
      "##aido": 4081,
      "##reme": 4082,
      "##bb": 4083,
      "##ban": 4084,
      "##lok": 4085,
      "##forest": 4086,
      "##alapan": 4087,
      "mag": 4088,
      "ribs": 4089,
      "##opi": 4090,
      "##iko": 4091,
      "101rb": 4092,
      "##eplok": 4093,
      "##ily": 4094,
      "##ille": 4095,
      "241": 4096,
      "287k": 4097,
      "237rb": 4098,
      "379": 4099,
      "395": 4100,
      "399rb": 4101,
      "345k": 4102,
      "353": 4103,
      "351rb": 4104,
      "351k": 4105,
      "495rb": 4106,
      "456k": 4107,
      "455k": 4108,
      "639rb": 4109,
      "639k": 4110,
      "488rb": 4111,
      "568k": 4112,
      "544k": 4113,
      "531rb": 4114,
      "648rb": 4115,
      "580rb": 4116,
      "720rb": 4117,
      "660rb": 4118,
      "supreme": 4119,
      "blackforest": 4120,
      "621rb": 4121,
      "krim": 4122,
      "bsb": 4123,
      "nusantar": 4124,
      "mambo": 4125,
      "rp145rb": 4126,
      "##apple": 4127,
      "rp183rb": 4128,
      "hokkaido": 4129,
      "sirsak": 4130,
      "##bingso": 4131,
      "tamago": 4132,
      "rawit": 4133,
      "rp406rb": 4134,
      "rp476rb": 4135,
      "rp510rb": 4136,
      "rp552rb": 4137,
      "rp570rb": 4138,
      "kitkat": 4139,
      "meatball": 4140,
      "cakalang": 4141,
      "waffle": 4142,
      "sparkling": 4143,
      "cheesecake": 4144,
      "family": 4145,
      "nipis": 4146,
      "col": 4147,
      "cuan": 4148,
      "fan": 4149,
      "gen": 4150,
      "gun": 4151,
      "hamp": 4152,
      "kan": 4153,
      "kism": 4154,
      "pom": 4155,
      "pcs": 4156,
      "vi": 4157,
      "vol": 4158,
      "wal": 4159,
      "##ka": 4160,
      "##dar": 4161,
      "##bl": 4162,
      "##set": 4163,
      "##na": 4164,
      "##pberry": 4165,
      "##wir": 4166,
      "##yang": 4167,
      "##ci": 4168,
      "##cano": 4169,
      "##fr": 4170,
      "##aku": 4171,
      "##ort": 4172,
      "##buk": 4173,
      "##but": 4174,
      "##bul": 4175,
      "sisir": 4176,
      "samyang": 4177,
      "danish": 4178,
      "109rb": 4179,
      "bite": 4180,
      "rp500rb": 4181,
      "frit": 4182,
      "marmer": 4183,
      "167": 4184,
      "166rb": 4185,
      "161rb": 4186,
      "199": 4187,
      "279k": 4188,
      "233": 4189,
      "251": 4190,
      "364k": 4191,
      "263rb": 4192,
      "313": 4193,
      "335rb": 4194,
      "steam": 4195,
      "428": 4196,
      "438rb": 4197,
      "410rb": 4198,
      "401": 4199,
      "409": 4200,
      "518rb": 4201,
      "518k": 4202,
      "511k": 4203,
      "459rb": 4204,
      "475": 4205,
      "488k": 4206,
      "528rb": 4207,
      "382": 4208,
      "464rb": 4209,
      "469k": 4210,
      "670rb": 4211,
      "675k": 4212,
      "sambelan": 4213,
      "popcan": 4214,
      "740k": 4215,
      "raspberry": 4216,
      "rp113rb": 4217,
      "rp163rb": 4218,
      "patbingso": 4219,
      "rp157rb": 4220,
      "roasted": 4221,
      "rp423rb": 4222,
      "rp460rb": 4223,
      "rp512rb": 4224,
      "rp511rb": 4225,
      "mbaaass": 4226,
      "break": 4227,
      "rp558rb": 4228,
      "rp580rb": 4229,
      "rp531rb": 4230,
      "rp610rb": 4231,
      "kiwi": 4232,
      "tofu": 4233,
      "bolognese": 4234,
      "nasgor": 4235,
      "bites": 4236,
      "candy": 4237,
      "furai": 4238,
      "gift": 4239,
      "##ight": 4240,
      "tenderloin": 4241,
      "chizu": 4242,
      "dodol": 4243,
      "guava": 4244,
      "kismis": 4245,
      "79k": 4246,
      "89rb": 4247,
      "89k": 4248,
      "both": 4249,
      "ceplok": 4250,
      "day": 4251,
      "fir": 4252,
      "good": 4253,
      "hem": 4254,
      "jep": 4255,
      "kt": 4256,
      "kj": 4257,
      "ken": 4258,
      "maki": 4259,
      "pul": 4260,
      "soka": 4261,
      "tw": 4262,
      "vir": 4263,
      "##de": 4264,
      "##ue": 4265,
      "##ug": 4266,
      "##se": 4267,
      "##ni": 4268,
      "##48rb": 4269,
      "##gin": 4270,
      "##fast": 4271,
      "##aken": 4272,
      "##engseng": 4273,
      "##ate": 4274,
      "##keju": 4275,
      "ring": 4276,
      "bail": 4277,
      "person": 4278,
      "##olong": 4279,
      "miner": 4280,
      "##inger": 4281,
      "##omi": 4282,
      "bolen": 4283,
      "##eeze": 4284,
      "saba": 4285,
      "##osa": 4286,
      "rp69": 4287,
      "rp648rb": 4288,
      "127rb": 4289,
      "111rb": 4290,
      "237": 4291,
      "293": 4292,
      "emping": 4293,
      "311": 4294,
      "332rb": 4295,
      "323": 4296,
      "371k": 4297,
      "307": 4298,
      "347": 4299,
      "349": 4300,
      "433": 4301,
      "438k": 4302,
      "496k": 4303,
      "512rb": 4304,
      "476k": 4305,
      "528k": 4306,
      "381": 4307,
      "462k": 4308,
      "##eys": 4309,
      "536rb": 4310,
      "592rb": 4311,
      "690rb": 4312,
      "730rb": 4313,
      "##pucino": 4314,
      "shaken": 4315,
      "krengseng": 4316,
      "lobs": 4317,
      "otako": 4318,
      "pine": 4319,
      "##ochip": 4320,
      "gobyoss": 4321,
      "markisa": 4322,
      "rp194rb": 4323,
      "##queen": 4324,
      "tamb": 4325,
      "rp262rb": 4326,
      "rp266rb": 4327,
      "tipis": 4328,
      "rp387rb": 4329,
      "jalar": 4330,
      "rp470rb": 4331,
      "rp513rb": 4332,
      "rp592rb": 4333,
      "pepperoni": 4334,
      "donuth": 4335,
      "sunset": 4336,
      "rp620rb": 4337,
      "rp536rb": 4338,
      "rp657rb": 4339,
      "tteok": 4340,
      "cimory": 4341,
      "tape": 4342,
      "add": 4343,
      "roya": 4344,
      "aglio": 4345,
      "opak": 4346,
      "strud": 4347,
      "gunkan": 4348,
      "volcano": 4349,
      "breakfast": 4350,
      "bothok": 4351,
      "virgin": 4352,
      "baileys": 4353,
      "personal": 4354,
      "krengsengan": 4355,
      "lobster": 4356,
      "97k": 4357,
      "bant": 4358,
      "de": 4359,
      "for": 4360,
      "god": 4361,
      "gado": 4362,
      "iris": 4363,
      "mon": 4364,
      "og": 4365,
      "olio": 4366,
      "pia": 4367,
      "ton": 4368,
      "yuz": 4369,
      "##aage": 4370,
      "##dak": 4371,
      "##day": 4372,
      "##uff": 4373,
      "##20rb": 4374,
      "##ring": 4375,
      "##ne": 4376,
      "##no": 4377,
      "##ion": 4378,
      "##iyaki": 4379,
      "##10rb": 4380,
      "##man": 4381,
      "##appucino": 4382,
      "chic": 4383,
      "bawah": 4384,
      "##olo": 4385,
      "tela": 4386,
      "spong": 4387,
      "belly": 4388,
      "chocochip": 4389,
      "121k": 4390,
      "187k": 4391,
      "frappucino": 4392,
      "149rb": 4393,
      "##ima": 4394,
      "191rb": 4395,
      "194k": 4396,
      "242k": 4397,
      "229": 4398,
      "237k": 4399,
      "toples": 4400,
      "206k": 4401,
      "201k": 4402,
      "295k": 4403,
      "257": 4404,
      "255k": 4405,
      "262k": 4406,
      "rp720rb": 4407,
      "rp710rb": 4408,
      "##ayo": 4409,
      "303rb": 4410,
      "358": 4411,
      "355k": 4412,
      "424k": 4413,
      "426k": 4414,
      "436": 4415,
      "413rb": 4416,
      "486k": 4417,
      "bali": 4418,
      "386": 4419,
      "385rb": 4420,
      "parm": 4421,
      "536k": 4422,
      "570k": 4423,
      "585k": 4424,
      "552rb": 4425,
      "558k": 4426,
      "blackcur": 4427,
      "shawar": 4428,
      "lemak": 4429,
      "krip": 4430,
      "naget": 4431,
      "rp139rb": 4432,
      "pokat": 4433,
      "tauge": 4434,
      "rp213rb": 4435,
      "rp101rb": 4436,
      "rp151rb": 4437,
      "rp178rb": 4438,
      "rp199rb": 4439,
      "koro": 4440,
      "rp333rb": 4441,
      "cheezy": 4442,
      "rp316rb": 4443,
      "moon": 4444,
      "rp483rb": 4445,
      "rp518rb": 4446,
      "cocoa": 4447,
      "rp584rb": 4448,
      "tnpa": 4449,
      "kurma": 4450,
      "atas": 4451,
      "rose": 4452,
      "watermelon": 4453,
      "pearl": 4454,
      "crumble": 4455,
      "silverqueen": 4456,
      "hemat": 4457,
      "jepang": 4458,
      "mineral": 4459,
      "sababay": 4460,
      "rp690rb": 4461,
      "pineapple": 4462,
      "tambah": 4463,
      "royal": 4464,
      "yuzu": 4465,
      "blackcurr": 4466,
      "shawarma": 4467,
      "bic": 4468,
      "flos": 4469,
      "gelat": 4470,
      "hat": 4471,
      "lec": 4472,
      "sy": 4473,
      "sor": 4474,
      "wism": 4475,
      "yogh": 4476,
      "you": 4477,
      "##80rb": 4478,
      "##uh": 4479,
      "##uck": 4480,
      "##pi": 4481,
      "##th": 4482,
      "##her": 4483,
      "##ean": 4484,
      "##gh": 4485,
      "##jus": 4486,
      "##jicha": 4487,
      "##ca": 4488,
      "##are": 4489,
      "##ami": 4490,
      "ched": 4491,
      "##ello": 4492,
      "##edel": 4493,
      "sin": 4494,
      "##inawa": 4495,
      "##uka": 4496,
      "caffe": 4497,
      "rp680rb": 4498,
      "113k": 4499,
      "137k": 4500,
      "131k": 4501,
      "166k": 4502,
      "274rb": 4503,
      "316k": 4504,
      "321": 4505,
      "rp700rb": 4506,
      "393": 4507,
      "359": 4508,
      "karaage": 4509,
      "439": 4510,
      "510k": 4511,
      "476rb": 4512,
      "483k": 4513,
      "462rb": 4514,
      "blan": 4515,
      "620k": 4516,
      "suwir": 4517,
      "##boki": 4518,
      "krupuk": 4519,
      "garam": 4520,
      "brok": 4521,
      "okinawa": 4522,
      "rp107rb": 4523,
      "kimchi": 4524,
      "rp274rb": 4525,
      "rp332rb": 4526,
      "mayon": 4527,
      "rp522rb": 4528,
      "rp525rb": 4529,
      "rp544rb": 4530,
      "cane": 4531,
      "magic": 4532,
      "nusantars": 4533,
      "##bulan": 4534,
      "fire": 4535,
      "tteokbokki": 4536,
      "bicopi": 4537,
      "floss": 4538,
      "hatchi": 4539,
      "wisman": 4540,
      "yoghurt": 4541,
      "cheddar": 4542,
      "83k": 4543,
      "bri": 4544,
      "bint": 4545,
      "cad": 4546,
      "cla": 4547,
      "di": 4548,
      "dory": 4549,
      "el": 4550,
      "gan": 4551,
      "get": 4552,
      "gil": 4553,
      "ginger": 4554,
      "lil": 4555,
      "lay": 4556,
      "lip": 4557,
      "mont": 4558,
      "moka": 4559,
      "of": 4560,
      "oolong": 4561,
      "rha": 4562,
      "ses": 4563,
      "tok": 4564,
      "zeb": 4565,
      "##az": 4566,
      "##ach": 4567,
      "##rup": 4568,
      "##bal": 4569,
      "##sc": 4570,
      "##par": 4571,
      "##pia": 4572,
      "##yak": 4573,
      "##yum": 4574,
      "##cake": 4575,
      "##usse": 4576,
      "##icake": 4577,
      "##etnam": 4578,
      "baked": 4579,
      "minicake": 4580,
      "##injo": 4581,
      "##onesi": 4582,
      "bubuk": 4583,
      "spring": 4584,
      "terang": 4585,
      "##oche": 4586,
      "##ocean": 4587,
      "##late": 4588,
      "##egum": 4589,
      "##oster": 4590,
      "##bab": 4591,
      "choch": 4592,
      "181k": 4593,
      "214rb": 4594,
      "218k": 4595,
      "167rb": 4596,
      "194rb": 4597,
      "158rb": 4598,
      "157rb": 4599,
      "178rb": 4600,
      "277k": 4601,
      "##sui": 4602,
      "241rb": 4603,
      "283": 4604,
      "226k": 4605,
      "223k": 4606,
      "pecal": 4607,
      "239k": 4608,
      "202rb": 4609,
      "254rb": 4610,
      "367": 4611,
      "##anda": 4612,
      "262rb": 4613,
      "314rb": 4614,
      "316rb": 4615,
      "331": 4616,
      "374": 4617,
      "430k": 4618,
      "418": 4619,
      "445": 4620,
      "383": 4621,
      "chocolatea": 4622,
      "549k": 4623,
      "465": 4624,
      "pancake": 4625,
      "nutela": 4626,
      "603rb": 4627,
      "640k": 4628,
      "584k": 4629,
      "558rb": 4630,
      "740rb": 4631,
      "bandeng": 4632,
      "tomyum": 4633,
      "##esse": 4634,
      "smoke": 4635,
      "apel": 4636,
      "mixed": 4637,
      "rp167rb": 4638,
      "buttersc": 4639,
      "rp218rb": 4640,
      "hainan": 4641,
      "rp226rb": 4642,
      "rp221rb": 4643,
      "kupas": 4644,
      "kapsui": 4645,
      "rp309rb": 4646,
      "mousse": 4647,
      "pasta": 4648,
      "rp424rb": 4649,
      "mochacino": 4650,
      "hojicha": 4651,
      "kibo": 4652,
      "canai": 4653,
      "tteo": 4654,
      "pepaya": 4655,
      "blackpaper": 4656,
      "tebal": 4657,
      "fanta": 4658,
      "vietnam": 4659,
      "strudel": 4660,
      "bantal": 4661,
      "irish": 4662,
      "gelato": 4663,
      "lipat": 4664,
      "zebra": 4665,
      "83rb": 4666,
      "97rb": 4667,
      "au": 4668,
      "aburi": 4669,
      "bro": 4670,
      "bott": 4671,
      "cola": 4672,
      "dom": 4673,
      "fet": 4674,
      "fun": 4675,
      "gor": 4676,
      "gla": 4677,
      "gayo": 4678,
      "ky": 4679,
      "kot": 4680,
      "lad": 4681,
      "loc": 4682,
      "lim": 4683,
      "met": 4684,
      "nn": 4685,
      "nangka": 4686,
      "pla": 4687,
      "rh": 4688,
      "rock": 4689,
      "tek": 4690,
      "tumbu": 4691,
      "tst": 4692,
      "toge": 4693,
      "ver": 4694,
      "var": 4695,
      "yum": 4696,
      "##roll": 4697,
      "##bet": 4698,
      "##land": 4699,
      "##wberry": 4700,
      "##vi": 4701,
      "##zer": 4702,
      "##anyaki": 4703,
      "##erame": 4704,
      "mata": 4705,
      "##usu": 4706,
      "##usant": 4707,
      "miss": 4708,
      "##ico": 4709,
      "##att": 4710,
      "##ette": 4711,
      "perk": 4712,
      "##opper": 4713,
      "##asan": 4714,
      "minyak": 4715,
      "##oku": 4716,
      "109k": 4717,
      "bunga": 4718,
      "##ity": 4719,
      "##emade": 4720,
      "##uki": 4721,
      "##boo": 4722,
      "booster": 4723,
      "##agus": 4724,
      "##agon": 4725,
      "indonesi": 4726,
      "burung": 4727,
      "chococ": 4728,
      "121rb": 4729,
      "187rb": 4730,
      "113rb": 4731,
      "soy": 4732,
      "soju": 4733,
      "139k": 4734,
      "hotbar": 4735,
      "218rb": 4736,
      "143k": 4737,
      "278k": 4738,
      "stro": 4739,
      "281rb": 4740,
      "233k": 4741,
      "206rb": 4742,
      "291rb": 4743,
      "254k": 4744,
      "253k": 4745,
      "361": 4746,
      "367rb": 4747,
      "362k": 4748,
      "331rb": 4749,
      "aspar": 4750,
      "398": 4751,
      "397": 4752,
      "302k": 4753,
      "303k": 4754,
      "356k": 4755,
      "425": 4756,
      "421": 4757,
      "435": 4758,
      "404": 4759,
      "ramerame": 4760,
      "575": 4761,
      "675rb": 4762,
      "610rb": 4763,
      "612rb": 4764,
      "730k": 4765,
      "whopper": 4766,
      "##rise": 4767,
      "kembang": 4768,
      "onion": 4769,
      "##allop": 4770,
      "yamin": 4771,
      "gemb": 4772,
      "taoge": 4773,
      "dragon": 4774,
      "kohi": 4775,
      "rp149rb": 4776,
      "rabokki": 4777,
      "rp214rb": 4778,
      "rp211rb": 4779,
      "rp181rb": 4780,
      "rp173rb": 4781,
      "rp179rb": 4782,
      "pahit": 4783,
      "rp223rb": 4784,
      "dubai": 4785,
      "rp249rb": 4786,
      "rp281rb": 4787,
      "rp278rb": 4788,
      "melinjo": 4789,
      "rp263rb": 4790,
      "rp327rb": 4791,
      "rp334rb": 4792,
      "rp339rb": 4793,
      "summer": 4794,
      "rp356rb": 4795,
      "rp302rb": 4796,
      "rp395rb": 4797,
      "oct": 4798,
      "spaget": 4799,
      "brew": 4800,
      "birth": 4801,
      "bombolone": 4802,
      "fluff": 4803,
      "scallop": 4804,
      "##tucin": 4805,
      "bobba": 4806,
      "pao": 4807,
      "##yeon": 4808,
      "homemade": 4809,
      "##ustard": 4810,
      "arabica": 4811,
      "pulut": 4812,
      "kripik": 4813,
      "blackcurrant": 4814,
      "brioche": 4815,
      "bintang": 4816,
      "rhabokki": 4817,
      "sesame": 4818,
      "terangbulan": 4819,
      "fettucin": 4820,
      "nnusant": 4821,
      "rhum": 4822,
      "tumbuk": 4823,
      "asparagus": 4824,
      "birthday": 4825,
      "fluffy": 4826,
      "nnusantara": 4827,
      "ah": 4828,
      "bon": 4829,
      "bris": 4830,
      "bund": 4831,
      "best": 4832,
      "fe": 4833,
      "fo": 4834,
      "fat": 4835,
      "gin": 4836,
      "har": 4837,
      "jos": 4838,
      "jengk": 4839,
      "kes": 4840,
      "kik": 4841,
      "lok": 4842,
      "lalapan": 4843,
      "md": 4844,
      "marg": 4845,
      "nd": 4846,
      "nes": 4847,
      "nbu": 4848,
      "nori": 4849,
      "ov": 4850,
      "ox": 4851,
      "pip": 4852,
      "pill": 4853,
      "sen": 4854,
      "win": 4855,
      "woku": 4856,
      "##kol": 4857,
      "##ao": 4858,
      "##iv": 4859,
      "##gi": 4860,
      "##get": 4861,
      "##gado": 4862,
      "##cy": 4863,
      "##zz": 4864,
      "##aka": 4865,
      "##akit": 4866,
      "##sing": 4867,
      "##otch": 4868,
      "##otti": 4869,
      "mac": 4870,
      "##usa": 4871,
      "##enger": 4872,
      "##bury": 4873,
      "cho": 4874,
      "chris": 4875,
      "miso": 4876,
      "##asari": 4877,
      "107k": 4878,
      "101k": 4879,
      "nyawang": 4880,
      "##oma": 4881,
      "terbang": 4882,
      "##ilk": 4883,
      "bogor": 4884,
      "inari": 4885,
      "139rb": 4886,
      "169k": 4887,
      "163k": 4888,
      "sapo": 4889,
      "197k": 4890,
      "191k": 4891,
      "151k": 4892,
      "278rb": 4893,
      "286k": 4894,
      "289k": 4895,
      "227rb": 4896,
      "229k": 4897,
      "##che": 4898,
      "202k": 4899,
      "209k": 4900,
      "298k": 4901,
      "253rb": 4902,
      "257k": 4903,
      "ome": 4904,
      "269k": 4905,
      "311k": 4906,
      "334k": 4907,
      "326k": 4908,
      "rp79rb": 4909,
      "307rb": 4910,
      "428rb": 4911,
      "cookie": 4912,
      "##rite": 4913,
      "412": 4914,
      "412rb": 4915,
      "447": 4916,
      "513rb": 4917,
      "486rb": 4918,
      "389": 4919,
      "strawbery": 4920,
      "##cky": 4921,
      "ifumi": 4922,
      "labu": 4923,
      "nyakit": 4924,
      "milktea": 4925,
      "all": 4926,
      "nusantra": 4927,
      "noug": 4928,
      "rp169rb": 4929,
      "blueocean": 4930,
      "patin": 4931,
      "##ocktail": 4932,
      "rp109rb": 4933,
      "calam": 4934,
      "bubbl": 4935,
      "rp191rb": 4936,
      "rp286rb": 4937,
      "kimboo": 4938,
      "cutlet": 4939,
      "rp254rb": 4940,
      "##ondong": 4941,
      "rp267rb": 4942,
      "rp338rb": 4943,
      "rp358rb": 4944,
      "swiss": 4945,
      "island": 4946,
      "klenger": 4947,
      "##ough": 4948,
      "halal": 4949,
      "snow": 4950,
      "##katsu": 4951,
      "stawberry": 4952,
      "tiga": 4953,
      "tiger": 4954,
      "gandum": 4955,
      "palm": 4956,
      "cuanki": 4957,
      "hampers": 4958,
      "kenari": 4959,
      "twis": 4960,
      "monkey": 4961,
      "lecy": 4962,
      "syrup": 4963,
      "sorbet": 4964,
      "blanc": 4965,
      "cadbury": 4966,
      "giling": 4967,
      "lilin": 4968,
      "tteoboki": 4969,
      "limasari": 4970,
      "plain": 4971,
      "perkedel": 4972,
      "brisket": 4973,
      "jengkol": 4974,
      "kikil": 4975,
      "nbuah": 4976,
      "pipil": 4977,
      "nyakitin": 4978,
      "ai": 4979,
      "bus": 4980,
      "bing": 4981,
      "boc": 4982,
      "custard": 4983,
      "dor": 4984,
      "dar": 4985,
      "eng": 4986,
      "gu": 4987,
      "gim": 4988,
      "gud": 4989,
      "han": 4990,
      "imp": 4991,
      "kast": 4992,
      "ling": 4993,
      "mek": 4994,
      "mut": 4995,
      "mod": 4996,
      "nyam": 4997,
      "pau": 4998,
      "praw": 4999
    }
  }
}