{
  "version": "1.0",
  "truncation": null,
  "padding": null,
  "added_tokens": [
    {
      "id": 0,
      "content": "[PAD]",
      "single_word": false,
      "lstrip": false,
      "rstrip": false,
      "normalized": false,
      "special": true
    },
    {
      "id": 1,
      "content": "[UNK]",
      "single_word": false,
      "lstrip": false,
      "rstrip": false,
      "normalized": false,
      "special": true
    },
    {
      "id": 2,
      "content": "[SEP]",
      "single_word": false,
      "lstrip": false,
      "rstrip": false,
      "normalized": false,
      "special": true
    }
  ],
  "normalizer": null,
  "pre_tokenizer": {
    "type": "Whitespace"
  },
  "post_processor": null,
  "decoder": null,
  "model": {
    "type": "WordPiece",
    "unk_token": "[UNK]",
    "continuing_subword_prefix": "##",
    "max_input_chars_per_word": 100,
    "vocab": {
      "[PAD]": 0,
      "[UNK]": 1,
      "[SEP]": 2,
      ".": 3,
      "0": 4,
      "1": 5,
      "2": 6,
      "3": 7,
      "4": 8,
      "5": 9,
      "6": 10,
      "7": 11,
      "8": 12,
      "9": 13,
      "E": 14,
      "P": 15,
      "S": 16,
      "[": 17,
      "]": 18,
      "a": 19,
      "b": 20,
      "c": 21,
      "d": 22,
      "e": 23,
      "f": 24,
      "g": 25,
      "h": 26,
      "i": 27,
      "j": 28,
      "k": 29,
      "l": 30,
      "m": 31,
      "n": 32,
      "o": 33,
      "p": 34,
      "q": 35,
      "r": 36,
      "s": 37,
      "t": 38,
      "u": 39,
      "v": 40,
      "w": 41,
      "x": 42,
      "y": 43,
      "z": 44,
      "##j": 45,
      "##i": 46,
      "##a": 47,
      "##k": 48,
      "##r": 49,
      "##o": 50,
      "##n": 51,
      "##g": 52,
      "##e": 53,
      "##b": 54,
      "##u": 55,
      "##c": 56,
      "##m": 57,
      "##l": 58,
      "##t": 59,
      "##s": 60,
      "##y": 61,
      "##p": 62,
      "##h": 63,
      "##d": 64,
      "##6": 65,
      "##5": 66,
      "##8": 67,
      "##0": 68,
      "##1": 69,
      "##2": 70,
      "##4": 71,
      "##9": 72,
      "##q": 73,
      "##v": 74,
      "##3": 75,
      "##w": 76,
      "##f": 77,
      "##7": 78,
      "##z": 79,
      "##x": 80,
      "##E": 81,
      "##P": 82,
      "##ak": 83,
      "kak": 84,
      "##an": 85,
      "##ya": 86,
      "SE": 87,
      "SEP": 88,
      "##ot": 89,
      "##al": 90,
      "pe": 91,
      "##ng": 92,
      "##si": 93,
      "ya": 94,
      "tot": 95,
      "total": 96,
      "##00": 97,
      "##rb": 98,
      "rp": 99,
      "000": 100,
      "##or": 101,
      "##ke": 102,
      "##nya": 103,
      "##ar": 104,
      "totalnya": 105,
      "##asi": 106,
      "nasi": 107,
      "pes": 108,
      "ma": 109,
      "##yam": 110,
      "##ap": 111,
      "ayam": 112,
      "##ong": 113,
      "##el": 114,
      "mi": 115,
      "si": 116,
      "##bu": 117,
      "ri": 118,
      "##at": 119,
      "oke": 120,
      "pesan": 121,
      "dong": 122,
      "siap": 123,
      "##er": 124,
      "mau": 125,
      "##et": 126,
      "ch": 127,
      "ribu": 128,
      "##eng": 129,
      "per": 130,
      "por": 131,
      "##ed": 132,
      "##arg": 133,
      "##ang": 134,
      "porsi": 135,
      "##ic": 136,
      "##am": 137,
      "harg": 138,
      "##oreng": 139,
      "##en": 140,
      "##ur": 141,
      "##ken": 142,
      "chic": 143,
      "chicken": 144,
      "goreng": 145,
      "##ai": 146,
      "##us": 147,
      "bak": 148,
      "##ih": 149,
      "##op": 150,
      "##ad": 151,
      "pen": 152,
      "not": 153,
      "noted": 154,
      "##is": 155,
      "min": 156,
      "peny": 157,
      "penyet": 158,
      "es": 159,
      "bo": 160,
      "##eh": 161,
      "nih": 162,
      "bai": 163,
      "baik": 164,
      "##ta": 165,
      "or": 166,
      "mie": 167,
      "##ing": 168,
      "##ah": 169,
      "##es": 170,
      "sat": 171,
      "10": 172,
      "##so": 173,
      "##in": 174,
      "pesen": 175,
      "##uan": 176,
      "satuan": 177,
      "jad": 178,
      "jadi": 179,
      "minta": 180,
      "##anya": 181,
      "harganya": 182,
      "tel": 183,
      "harga": 184,
      "sus": 185,
      "bakso": 186,
      "##as": 187,
      "##ok": 188,
      "##it": 189,
      "susu": 190,
      "##0rb": 191,
      "##um": 192,
      "ord": 193,
      "##ek": 194,
      "bol": 195,
      "bel": 196,
      "##om": 197,
      "##on": 198,
      "##em": 199,
      "order": 200,
      "##ung": 201,
      "boleh": 202,
      "kop": 203,
      "beli": 204,
      "kopi": 205,
      "ke": 206,
      "bis": 207,
      "bisa": 208,
      "ku": 209,
      "##amb": 210,
      "##te": 211,
      "se": 212,
      "telur": 213,
      "bu": 214,
      "mas": 215,
      "##uk": 216,
      "##aw": 217,
      "samb": 218,
      "##ep": 219,
      "##ut": 220,
      "##4rb": 221,
      "##au": 222,
      "##ag": 223,
      "##2rb": 224,
      "##6rb": 225,
      "cr": 226,
      "##ie": 227,
      "##8rb": 228,
      "##lat": 229,
      "rp1": 230,
      "bakar": 231,
      "##5rb": 232,
      "##bo": 233,
      "teh": 234,
      "sambal": 235,
      "##amp": 236,
      "##ch": 237,
      "##nd": 238,
      "##la": 239,
      "rp2": 240,
      "##im": 241,
      "##bak": 242,
      "##ay": 243,
      "##0k": 244,
      "##ce": 245,
      "##atte": 246,
      "##ri": 247,
      "##ba": 248,
      "latte": 249,
      "be": 250,
      "rp3": 251,
      "##pe": 252,
      "gep": 253,
      "##oc": 254,
      "sop": 255,
      "##od": 256,
      "ori": 257,
      "telor": 258,
      "##af": 259,
      "##rek": 260,
      "geprek": 261,
      "##ro": 262,
      "##ju": 263,
      "##gin": 264,
      "origin": 265,
      "original": 266,
      "##ood": 267,
      "rp4": 268,
      "##1rb": 269,
      "##le": 270,
      "##dang": 271,
      "ind": 272,
      "##3rb": 273,
      "##il": 274,
      "##ahu": 275,
      "##bek": 276,
      "so": 277,
      "##omie": 278,
      "##7rb": 279,
      "indomie": 280,
      "bebek": 281,
      "seaf": 282,
      "seafood": 283,
      "keju": 284,
      "##ol": 285,
      "##9rb": 286,
      "tahu": 287,
      "boba": 288,
      "man": 289,
      "##ies": 290,
      "##ry": 291,
      "##jo": 292,
      "##ga": 293,
      "##un": 294,
      "re": 295,
      "kuah": 296,
      "##os": 297,
      "udang": 298,
      "jus": 299,
      "##oklat": 300,
      "##wet": 301,
      "rp5": 302,
      "##4k": 303,
      "##2k": 304,
      "tar": 305,
      "bang": 306,
      "pak": 307,
      "kk": 308,
      "##gu": 309,
      "coklat": 310,
      "##kan": 311,
      "bg": 312,
      "ikan": 313,
      "kwet": 314,
      "kweti": 315,
      "co": 316,
      "te": 317,
      "rp6": 318,
      "##ab": 319,
      "wing": 320,
      "tea": 321,
      "12": 322,
      "gur": 323,
      "##8k": 324,
      "##6k": 325,
      "ijo": 326,
      "##ee": 327,
      "##5k": 328,
      "mbak": 329,
      "kamp": 330,
      "##lit": 331,
      "rice": 332,
      "##ff": 333,
      "##annya": 334,
      "pesanannya": 335,
      "masuk": 336,
      "pan": 337,
      "13": 338,
      "11": 339,
      "mo": 340,
      "##yak": 341,
      "14": 342,
      "st": 343,
      "ter": 344,
      "##itung": 345,
      "21": 346,
      "ditung": 347,
      "ditunggu": 348,
      "sa": 349,
      "18": 350,
      "spe": 351,
      "##oco": 352,
      "##isp": 353,
      "##ese": 354,
      "##aging": 355,
      "bi": 356,
      "daging": 357,
      "wings": 358,
      "##cha": 359,
      "16": 360,
      "jum": 361,
      "jumbo": 362,
      "mang": 363,
      "##mp": 364,
      "##ci": 365,
      "che": 366,
      "taro": 367,
      "##ik": 368,
      "kwetiau": 369,
      "gu": 370,
      "penyetan": 371,
      "15": 372,
      "kampung": 373,
      "as": 374,
      "##su": 375,
      "mat": 376,
      "crisp": 377,
      "tem": 378,
      "kec": 379,
      "##ir": 380,
      "##wn": 381,
      "##otong": 382,
      "mar": 383,
      "27": 384,
      "24": 385,
      "ped": 386,
      "##oto": 387,
      "##asa": 388,
      "th": 389,
      "camp": 390,
      "campur": 391,
      "emp": 392,
      "guram": 393,
      "28": 394,
      "19": 395,
      "##yaki": 396,
      "tt": 397,
      "kulit": 398,
      "pang": 399,
      "##og": 400,
      "ttl": 401,
      "17": 402,
      "mil": 403,
      "moz": 404,
      "hot": 405,
      "22": 406,
      "36": 407,
      "bro": 408,
      "soto": 409,
      "##erry": 410,
      "jer": 411,
      "##up": 412,
      "brown": 413,
      "lem": 414,
      "cap": 415,
      "23": 416,
      "##ent": 417,
      "manis": 418,
      "biasa": 419,
      "25": 420,
      "37": 421,
      "fri": 422,
      "cheese": 423,
      "pop": 424,
      "iga": 425,
      "32": 426,
      "20": 427,
      "choco": 428,
      "##wan": 429,
      "##ca": 430,
      "rica": 431,
      "##sis": 432,
      "33": 433,
      "rebu": 434,
      "##abe": 435,
      "crispy": 436,
      "##berry": 437,
      "sosis": 438,
      "##eam": 439,
      "empal": 440,
      "cream": 441,
      "kat": 442,
      "##ast": 443,
      "rp7": 444,
      "tempe": 445,
      "26": 446,
      "pedas": 447,
      "29": 448,
      "katsu": 449,
      "say": 450,
      "39": 451,
      "cin": 452,
      "sayur": 453,
      "##yo": 454,
      "31": 455,
      "##and": 456,
      "##ning": 457,
      "matcha": 458,
      "##bq": 459,
      "bbq": 460,
      "##co": 461,
      "if": 462,
      "jeruk": 463,
      "masak": 464,
      "yam": 465,
      "brownies": 466,
      "##pa": 467,
      "dad": 468,
      "bl": 469,
      "42": 470,
      "##orn": 471,
      "cabe": 472,
      "30": 473,
      "thai": 474,
      "##eg": 475,
      "##ella": 476,
      "tan": 477,
      "teri": 478,
      "##ado": 479,
      "##qu": 480,
      "kar": 481,
      "44": 482,
      "teriyaki": 483,
      "##oti": 484,
      "cook": 485,
      "35": 486,
      "roti": 487,
      "cookies": 488,
      "jam": 489,
      "cinc": 490,
      "tanpa": 491,
      "##sial": 492,
      "spesial": 493,
      "##ingin": 494,
      "dingin": 495,
      "top": 496,
      "cincau": 497,
      "tim": 498,
      "40": 499,
      "##api": 500,
      "34": 501,
      "potong": 502,
      "om": 503,
      "49": 504,
      "45": 505,
      "put": 506,
      "kuning": 507,
      "putih": 508,
      "##uu": 509,
      "43": 510,
      "63": 511,
      "##ren": 512,
      "51": 513,
      "nut": 514,
      "##omay": 515,
      "siomay": 516,
      "kot": 517,
      "41": 518,
      "48": 519,
      "lemon": 520,
      "##aha": 521,
      "56": 522,
      "ot": 523,
      "##ffee": 524,
      "##ari": 525,
      "gem": 526,
      "##ium": 527,
      "##obo": 528,
      "med": 529,
      "52": 530,
      "mini": 531,
      "bakwan": 532,
      "57": 533,
      "medium": 534,
      "54": 535,
      "ice": 536,
      "sei": 537,
      "##ele": 538,
      "lele": 539,
      "##rg": 540,
      "fried": 541,
      "hit": 542,
      "hitam": 543,
      "mata": 544,
      "47": 545,
      "saos": 546,
      "##edang": 547,
      "hrg": 548,
      "sp": 549,
      "46": 550,
      "##hi": 551,
      "##ble": 552,
      "##gang": 553,
      "rbu": 554,
      "panggang": 555,
      "baw": 556,
      "sm": 557,
      "53": 558,
      "##jau": 559,
      "set": 560,
      "50": 561,
      "sem": 562,
      "marta": 563,
      "##sit": 564,
      "##umi": 565,
      "38": 566,
      "martabak": 567,
      "sapi": 568,
      "masakan": 569,
      "rebus": 570,
      "##ant": 571,
      "59": 572,
      "cur": 573,
      "##st": 574,
      "curry": 575,
      "##ino": 576,
      "larg": 577,
      "##oboyo": 578,
      "large": 579,
      "wong": 580,
      "##eroboyo": 581,
      "soeroboyo": 582,
      "##arella": 583,
      "sambel": 584,
      "##lak": 585,
      "##awa": 586,
      "paha": 587,
      "##late": 588,
      "##bel": 589,
      "##angat": 590,
      "##amel": 591,
      "##ain": 592,
      "pec": 593,
      "mangga": 594,
      "##bon": 595,
      "hangat": 596,
      "##ku": 597,
      "mozarella": 598,
      "ker": 599,
      "ic": 600,
      "##ka": 601,
      "coffee": 602,
      "bal": 603,
      "##kus": 604,
      "do": 605,
      "##ter": 606,
      "hain": 607,
      "64": 608,
      "hainan": 609,
      "##bur": 610,
      "bung": 611,
      "##ffle": 612,
      "str": 613,
      "67": 614,
      "##end": 615,
      "kotak": 616,
      "##gar": 617,
      "kecil": 618,
      "##ra": 619,
      "72": 620,
      "straw": 621,
      "ni": 622,
      "##ihun": 623,
      "61": 624,
      "bihun": 625,
      "bur": 626,
      "com": 627,
      "##ru": 628,
      "go": 629,
      "58": 630,
      "gul": 631,
      "strawberry": 632,
      "##don": 633,
      "bungkus": 634,
      "ste": 635,
      "tom": 636,
      "60": 637,
      "69": 638,
      "##ny": 639,
      "steak": 640,
      "gurami": 641,
      "66": 642,
      "kor": 643,
      "red": 644,
      "55": 645,
      "matah": 646,
      "##est": 647,
      "milo": 648,
      "hrgny": 649,
      "dadar": 650,
      "##cial": 651,
      "special": 652,
      "ifum": 653,
      "kore": 654,
      "ifumie": 655,
      "71": 656,
      "raw": 657,
      "##ger": 658,
      "korean": 659,
      "##pu": 660,
      "milk": 661,
      "##vet": 662,
      "##blak": 663,
      "seblak": 664,
      "iced": 665,
      "##elvet": 666,
      "cumi": 667,
      "kr": 668,
      "mer": 669,
      "mad": 670,
      "asap": 671,
      "73": 672,
      "##cino": 673,
      "bawang": 674,
      "70": 675,
      "##av": 676,
      "velvet": 677,
      "par": 678,
      "sh": 679,
      "65": 680,
      "##per": 681,
      "##wl": 682,
      "62": 683,
      "gurame": 684,
      "##ava": 685,
      "##oast": 686,
      "##ake": 687,
      "bowl": 688,
      "pol": 689,
      "##ahan": 690,
      "##goreng": 691,
      "su": 692,
      "smo": 693,
      "ran": 694,
      "##age": 695,
      "saus": 696,
      "sate": 697,
      "75": 698,
      "mel": 699,
      "polos": 700,
      "aren": 701,
      "##ush": 702,
      "jag": 703,
      "##let": 704,
      "jagung": 705,
      "otak": 706,
      "ex": 707,
      "68": 708,
      "##ela": 709,
      "##bab": 710,
      "74": 711,
      "##tra": 712,
      "extra": 713,
      "combo": 714,
      "sup": 715,
      "##yung": 716,
      "balado": 717,
      "kering": 718,
      "nila": 719,
      "manyung": 720,
      "sal": 721,
      "##bung": 722,
      "##ith": 723,
      "with": 724,
      "##iting": 725,
      "yamin": 726,
      "ba": 727,
      "gembung": 728,
      "bubur": 729,
      "sedang": 730,
      "tru": 731,
      "box": 732,
      "truffle": 733,
      "kecap": 734,
      "##yap": 735,
      "sir": 736,
      "tau": 737,
      "pangsit": 738,
      "cappu": 739,
      "br": 740,
      "gar": 741,
      "##angka": 742,
      "kep": 743,
      "##kuah": 744,
      "##sin": 745,
      "dim": 746,
      "##sum": 747,
      "mozz": 748,
      "##rap": 749,
      "##seng": 750,
      "dimsum": 751,
      "bar": 752,
      "semangka": 753,
      "tauco": 754,
      "##ul": 755,
      "burger": 756,
      "pad": 757,
      "al": 758,
      "padang": 759,
      "ti": 760,
      "##elet": 761,
      "oseng": 762,
      "##00rb": 763,
      "tarik": 764,
      "car": 765,
      "pecel": 766,
      "asin": 767,
      "timbel": 768,
      "##ian": 769,
      "##corn": 770,
      "##lic": 771,
      "##ako": 772,
      "##oy": 773,
      "gurih": 774,
      "blu": 775,
      "van": 776,
      "##ocok": 777,
      "##rip": 778,
      "du": 779,
      "mango": 780,
      "lad": 781,
      "me": 782,
      "rawon": 783,
      "##zen": 784,
      "fro": 785,
      "##ali": 786,
      "frozen": 787,
      "##illa": 788,
      "pand": 789,
      "caramel": 790,
      "ban": 791,
      "panc": 792,
      "pandan": 793,
      "blue": 794,
      "##ac": 795,
      "bun": 796,
      "##ping": 797,
      "vanilla": 798,
      "##ris": 799,
      "##wer": 800,
      "segar": 801,
      "kom": 802,
      "##assi": 803,
      "strip": 804,
      "pancong": 805,
      "asam": 806,
      "##ump": 807,
      "gula": 808,
      "dog": 809,
      "##uj": 810,
      "##we": 811,
      "tiaw": 812,
      "kim": 813,
      "pis": 814,
      "##ia": 815,
      "bent": 816,
      "cor": 817,
      "bento": 818,
      "aci": 819,
      "##eo": 820,
      "pisang": 821,
      "##risari": 822,
      "bat": 823,
      "ren": 824,
      "##esar": 825,
      "nutrisari": 826,
      "rendang": 827,
      "##ud": 828,
      "##ha": 829,
      "##rbe": 830,
      "oreo": 831,
      "##ick": 832,
      "besar": 833,
      "doger": 834,
      "jambu": 835,
      "kri": 836,
      "bakm": 837,
      "##ura": 838,
      "##plit": 839,
      "sar": 840,
      "melon": 841,
      "rbuan": 842,
      "terong": 843,
      "sing": 844,
      "toast": 845,
      "##tel": 846,
      "ranjau": 847,
      "##oss": 848,
      "kebab": 849,
      "##ana": 850,
      "gorengkuah": 851,
      "crep": 852,
      "##eke": 853,
      "##old": 854,
      "##oth": 855,
      "crepes": 856,
      "##by": 857,
      "hi": 858,
      "goby": 859,
      "kent": 860,
      "##bok": 861,
      "gobyoss": 862,
      "le": 863,
      "men": 864,
      "dur": 865,
      "kentang": 866,
      "ble": 867,
      "cut": 868,
      "omelet": 869,
      "hijau": 870,
      "jamur": 871,
      "smooth": 872,
      "ment": 873,
      "ifu": 874,
      "cutlet": 875,
      "mentai": 876,
      "banana": 877,
      "##emp": 878,
      "##ew": 879,
      "##awar": 880,
      "gong": 881,
      "gongso": 882,
      "djo": 883,
      "##ked": 884,
      "##edes": 885,
      "djoedes": 886,
      "gulai": 887,
      "kepiting": 888,
      "ny": 889,
      "yambok": 890,
      "ser": 891,
      "ek": 892,
      "rb": 893,
      "##ao": 894,
      "omahan": 895,
      "ta": 896,
      "sushi": 897,
      "bs": 898,
      "cl": 899,
      "##iri": 900,
      "penang": 901,
      "tawar": 902,
      "nan": 903,
      "peras": 904,
      "tep": 905,
      "fries": 906,
      "mush": 907,
      "belut": 908,
      "##room": 909,
      "garlic": 910,
      "jawa": 911,
      "mushroom": 912,
      "karage": 913,
      "yak": 914,
      "dada": 915,
      "wh": 916,
      "topping": 917,
      "super": 918,
      "##sol": 919,
      "##pan": 920,
      "##assic": 921,
      "classic": 922,
      "risol": 923,
      "lemper": 924,
      "fren": 925,
      "plat": 926,
      "##app": 927,
      "merah": 928,
      "rm": 929,
      "##puk": 930,
      "platter": 931,
      "ly": 932,
      "sk": 933,
      "lych": 934,
      "teng": 935,
      "##li": 936,
      "##ks": 937,
      "guava": 938,
      "lychee": 939,
      "pete": 940,
      "##ahe": 941,
      "##ck": 942,
      "bolu": 943,
      "kocok": 944,
      "##amy": 945,
      "ber": 946,
      "jahe": 947,
      "bulat": 948,
      "fir": 949,
      "meal": 950,
      "bub": 951,
      "fire": 952,
      "bubble": 953,
      "##okah": 954,
      "barokah": 955,
      "kwetiaw": 956,
      "and": 957,
      "dan": 958,
      "panas": 959,
      "mc": 960,
      "but": 961,
      "bunt": 962,
      "bla": 963,
      "popcorn": 964,
      "butter": 965,
      "##wang": 966,
      "buntut": 967,
      "##wir": 968,
      "dou": 969,
      "skin": 970,
      "samp": 971,
      "matha": 972,
      "black": 973,
      "##get": 974,
      "double": 975,
      "ar": 976,
      "cake": 977,
      "kebon": 978,
      "suwir": 979,
      "samping": 980,
      "spic": 981,
      "##angi": 982,
      "spicy": 983,
      "##to": 984,
      "pl": 985,
      "kamb": 986,
      "otot": 987,
      "kambing": 988,
      "dend": 989,
      "tir": 990,
      "mcd": 991,
      "dendeng": 992,
      "##az": 993,
      "##ss": 994,
      "##usu": 995,
      "tiram": 996,
      "##br": 997,
      "non": 998,
      "plate": 999,
      "##weet": 1000,
      "band": 1001,
      "ju": 1002,
      "xl": 1003,
      "##nut": 1004,
      "##ma": 1005,
      "ok": 1006,
      "##apan": 1007,
      "haz": 1008,
      "kac": 1009,
      "##ink": 1010,
      "kacang": 1011,
      "##ze": 1012,
      "##ori": 1013,
      "veg": 1014,
      "##elnut": 1015,
      "##que": 1016,
      "kriuk": 1017,
      "hazelnut": 1018,
      "dr": 1019,
      "##lo": 1020,
      "duo": 1021,
      "bandung": 1022,
      "plus": 1023,
      "stick": 1024,
      "komplit": 1025,
      "##alang": 1026,
      "bet": 1027,
      "ben": 1028,
      "barbe": 1029,
      "pesto": 1030,
      "barbeque": 1031,
      "bakmie": 1032,
      "nya": 1033,
      "##umbu": 1034,
      "strips": 1035,
      "cordon": 1036,
      "oc": 1037,
      "rp9": 1038,
      "cay": 1039,
      "##ach": 1040,
      "bensu": 1041,
      "po": 1042,
      "##engk": 1043,
      "parm": 1044,
      "##do": 1045,
      "tiramis": 1046,
      "wedang": 1047,
      "120": 1048,
      "bumbu": 1049,
      "cold": 1050,
      "##mon": 1051,
      "tiramisu": 1052,
      "##ge": 1053,
      "##aya": 1054,
      "##20rb": 1055,
      "coco": 1056,
      "lengk": 1057,
      "lim": 1058,
      "ang": 1059,
      "mn": 1060,
      "shap": 1061,
      "lengkap": 1062,
      "cup": 1063,
      "##aap": 1064,
      "##uda": 1065,
      "cao": 1066,
      "##ehun": 1067,
      "##antar": 1068,
      "sirup": 1069,
      "cappucino": 1070,
      "miehun": 1071,
      "##80rb": 1072,
      "mauuu": 1073,
      "abon": 1074,
      "ras": 1075,
      "##gul": 1076,
      "##con": 1077,
      "reog": 1078,
      "requ": 1079,
      "crispi": 1080,
      "potongan": 1081,
      "request": 1082,
      "##obak": 1083,
      "##cak": 1084,
      "tomyam": 1085,
      "book": 1086,
      "##aso": 1087,
      "kimci": 1088,
      "remp": 1089,
      "ske": 1090,
      "##oke": 1091,
      "regul": 1092,
      "pedes": 1093,
      "dj": 1094,
      "##ader": 1095,
      "##ornet": 1096,
      "karamel": 1097,
      "##duk": 1098,
      "fil": 1099,
      "##bat": 1100,
      "##emes": 1101,
      "sek": 1102,
      "wader": 1103,
      "djawa": 1104,
      "kornet": 1105,
      "kremes": 1106,
      "chocolate": 1107,
      "pansit": 1108,
      "##ban": 1109,
      "capc": 1110,
      "sekali": 1111,
      "##inasi": 1112,
      "kuahgoreng": 1113,
      "mercon": 1114,
      "capcay": 1115,
      "toping": 1116,
      "##ly": 1117,
      "##asari": 1118,
      "limasari": 1119,
      "90": 1120,
      "madura": 1121,
      "tab": 1122,
      "cupcak": 1123,
      "cupcakes": 1124,
      "ceke": 1125,
      "ocha": 1126,
      "rp14": 1127,
      "##tea": 1128,
      "##pukat": 1129,
      "ceker": 1130,
      "nutella": 1131,
      "alpukat": 1132,
      "##telur": 1133,
      "av": 1134,
      "##ano": 1135,
      "##teh": 1136,
      "cj": 1137,
      "##dw": 1138,
      "##ocado": 1139,
      "##abi": 1140,
      "cjdw": 1141,
      "suk": 1142,
      "##ef": 1143,
      "mand": 1144,
      "esteh": 1145,
      "##00k": 1146,
      "lava": 1147,
      "beef": 1148,
      "144": 1149,
      "avocado": 1150,
      "##7k": 1151,
      "penc": 1152,
      "sel": 1153,
      "180": 1154,
      "rop": 1155,
      "##wah": 1156,
      "rp11": 1157,
      "ropang": 1158,
      "jel": 1159,
      "salmon": 1160,
      "blewah": 1161,
      "##ki": 1162,
      "##und": 1163,
      "nako": 1164,
      "jelly": 1165,
      "##re": 1166,
      "ur": 1167,
      "##gur": 1168,
      "##all": 1169,
      "sugar": 1170,
      "##mer": 1171,
      "urat": 1172,
      "48k": 1173,
      "##1k": 1174,
      "rp60rb": 1175,
      "don": 1176,
      "pecak": 1177,
      "anggur": 1178,
      "30rb": 1179,
      "nm": 1180,
      "rp13": 1181,
      "smoothie": 1182,
      "##ish": 1183,
      "buah": 1184,
      "mix": 1185,
      "##ayo": 1186,
      "72k": 1187,
      "batok": 1188,
      "##nasi": 1189,
      "gayo": 1190,
      "216": 1191,
      "pecaknasi": 1192,
      "duren": 1193,
      "omelette": 1194,
      "rp40rb": 1195,
      "buco": 1196,
      "ol": 1197,
      "60rb": 1198,
      "french": 1199,
      "24k": 1200,
      "caf": 1201,
      "##ti": 1202,
      "##9k": 1203,
      "40rb": 1204,
      "##okki": 1205,
      "creamy": 1206,
      "36rb": 1207,
      "un": 1208,
      "##60rb": 1209,
      "##50rb": 1210,
      "##ich": 1211,
      "##agor": 1212,
      "bag": 1213,
      "##ina": 1214,
      "lada": 1215,
      "30k": 1216,
      "lap": 1217,
      "chees": 1218,
      "72rb": 1219,
      "96": 1220,
      "wal": 1221,
      "##ij": 1222,
      "210": 1223,
      "paru": 1224,
      "40k": 1225,
      "cro": 1226,
      "rp24rb": 1227,
      "##ima": 1228,
      "cheesy": 1229,
      "lapis": 1230,
      "240": 1231,
      "olahan": 1232,
      "36k": 1233,
      "64k": 1234,
      "marina": 1235,
      "rp72rb": 1236,
      "squ": 1237,
      "63k": 1238,
      "small": 1239,
      "beras": 1240,
      "##go": 1241,
      "##susu": 1242,
      "kuku": 1243,
      "24rb": 1244,
      "japan": 1245,
      "##giri": 1246,
      "rp56rb": 1247,
      "blackp": 1248,
      "##3k": 1249,
      "##ash": 1250,
      "kota": 1251,
      "blueberry": 1252,
      "##ne": 1253,
      "pep": 1254,
      "mint": 1255,
      "belur": 1256,
      "50rb": 1257,
      "66rb": 1258,
      "wij": 1259,
      "##ug": 1260,
      "##ite": 1261,
      "sayap": 1262,
      "168": 1263,
      "70k": 1264,
      "##unch": 1265,
      "walek": 1266,
      "japanese": 1267,
      "66k": 1268,
      "chasi": 1269,
      "##ont": 1270,
      "rp48rb": 1271,
      "48rb": 1272,
      "64rb": 1273,
      "tali": 1274,
      "babi": 1275,
      "rp36rb": 1276,
      "taliwang": 1277,
      "60k": 1278,
      "##ae": 1279,
      "##aki": 1280,
      "crush": 1281,
      "280": 1282,
      "wijen": 1283,
      "chasio": 1284,
      "56k": 1285,
      "kik": 1286,
      "##ail": 1287,
      "rp18rb": 1288,
      "kikil": 1289,
      "44rb": 1290,
      "leg": 1291,
      "penne": 1292,
      "rp45rb": 1293,
      "cir": 1294,
      "##ling": 1295,
      "teppan": 1296,
      "teppanyaki": 1297,
      "cil": 1298,
      "rp21": 1299,
      "mente": 1300,
      "cireng": 1301,
      "56rb": 1302,
      "rp54rb": 1303,
      "mocha": 1304,
      "the": 1305,
      "topokki": 1306,
      "baso": 1307,
      "108": 1308,
      "rp30rb": 1309,
      "##qua": 1310,
      "squash": 1311,
      "aqua": 1312,
      "hed": 1313,
      "##iku": 1314,
      "pepper": 1315,
      "heddon": 1316,
      "20rb": 1317,
      "ken": 1318,
      "##res": 1319,
      "manggo": 1320,
      "nanas": 1321,
      "cilok": 1322,
      "70rb": 1323,
      "past": 1324,
      "xo": 1325,
      "perked": 1326,
      "##argoreng": 1327,
      "bakargoreng": 1328,
      "##oyang": 1329,
      "perkedel": 1330,
      "fe": 1331,
      "rp42rb": 1332,
      "dori": 1333,
      "##ani": 1334,
      "kecom": 1335,
      "kem": 1336,
      "##brang": 1337,
      "donat": 1338,
      "feast": 1339,
      "kecombrang": 1340,
      "nug": 1341,
      "crunch": 1342,
      "mentega": 1343,
      "42k": 1344,
      "minyak": 1345,
      "##utu": 1346,
      "asem": 1347,
      "rp70rb": 1348,
      "nugget": 1349,
      "84": 1350,
      "happ": 1351,
      "li": 1352,
      "##oli": 1353,
      "32rb": 1354,
      "loyang": 1355,
      "sweet": 1356,
      "xx": 1357,
      "##stim": 1358,
      "taich": 1359,
      "betutu": 1360,
      "bagian": 1361,
      "happy": 1362,
      "taichan": 1363,
      "54rb": 1364,
      "istim": 1365,
      "wrap": 1366,
      "rp20rb": 1367,
      "drink": 1368,
      "xxl": 1369,
      "istimew": 1370,
      "50k": 1371,
      "roast": 1372,
      "tamb": 1373,
      "dae": 1374,
      "gil": 1375,
      "nok": 1376,
      "rp8": 1377,
      "tenggiri": 1378,
      "daebak": 1379,
      "80": 1380,
      "gand": 1381,
      "kail": 1382,
      "of": 1383,
      "bos": 1384,
      "istimewa": 1385,
      "kailan": 1386,
      "ita": 1387,
      "rp64rb": 1388,
      "360": 1389,
      "smoked": 1390,
      "##ewon": 1391,
      "giling": 1392,
      "itaewon": 1393,
      "18k": 1394,
      "best": 1395,
      "##gil": 1396,
      "##atas": 1397,
      "spr": 1398,
      "18rb": 1399,
      "##jang": 1400,
      "##iun": 1401,
      "##iniku": 1402,
      "rp49rb": 1403,
      "madiun": 1404,
      "mozzy": 1405,
      "bosgil": 1406,
      "28rb": 1407,
      "63rb": 1408,
      "sc": 1409,
      "rp35rb": 1410,
      "brok": 1411,
      "dar": 1412,
      "##40rb": 1413,
      "##ambu": 1414,
      "##rika": 1415,
      "rp66rb": 1416,
      "rp63rb": 1417,
      "yakiniku": 1418,
      "us": 1419,
      "##aage": 1420,
      "##alin": 1421,
      "##amil": 1422,
      "danish": 1423,
      "roasted": 1424,
      "32k": 1425,
      "de": 1426,
      "famil": 1427,
      "la": 1428,
      "waki": 1429,
      "##utan": 1430,
      "rp32rb": 1431,
      "karaage": 1432,
      "##umpling": 1433,
      "white": 1434,
      "pastel": 1435,
      "tambah": 1436,
      "brokoli": 1437,
      "family": 1438,
      "cak": 1439,
      "dumpling": 1440,
      "##matas": 1441,
      "##aper": 1442,
      "chee": 1443,
      "rp12": 1444,
      "dadarmatas": 1445,
      "##wers": 1446,
      "skewers": 1447,
      "dadarmatasapi": 1448,
      "45k": 1449,
      "hutan": 1450,
      "##por": 1451,
      "rp50rb": 1452,
      "crunchy": 1453,
      "54k": 1454,
      "rp12rb": 1455,
      "##ryani": 1456,
      "biryani": 1457,
      "gempor": 1458,
      "spring": 1459,
      "kol": 1460,
      "samy": 1461,
      "132": 1462,
      "150": 1463,
      "single": 1464,
      "croffle": 1465,
      "cakalang": 1466,
      "samyang": 1467,
      "long": 1468,
      "og": 1469,
      "##adog": 1470,
      "rp16rb": 1471,
      "bawal": 1472,
      "ranch": 1473,
      "##adogado": 1474,
      "52k": 1475,
      "dol": 1476,
      "126": 1477,
      "gandul": 1478,
      "coc": 1479,
      "##umer": 1480,
      "39k": 1481,
      "dolce": 1482,
      "51rb": 1483,
      "ts": 1484,
      "siobak": 1485,
      "rp10": 1486,
      "oct": 1487,
      "blackpaper": 1488,
      "75rb": 1489,
      "mont": 1490,
      "##ati": 1491,
      "##urap": 1492,
      "dub": 1493,
      "risoles": 1494,
      "ham": 1495,
      "##potong": 1496,
      "##opus": 1497,
      "kebu": 1498,
      "rp52rb": 1499,
      "ome": 1500,
      "madu": 1501,
      "nanban": 1502,
      "octopus": 1503,
      "##gadogado": 1504,
      "nasigadogado": 1505,
      "pecelurap": 1506,
      "dubai": 1507,
      "md": 1508,
      "nyak": 1509,
      "##jeg": 1510,
      "size": 1511,
      "##ice": 1512,
      "##itin": 1513,
      "rp27rb": 1514,
      "panjang": 1515,
      "fillet": 1516,
      "nyakitin": 1517,
      "16rb": 1518,
      "bambu": 1519,
      "qu": 1520,
      "urap": 1521,
      "bejeg": 1522,
      "kemangi": 1523,
      "kebuli": 1524,
      "27rb": 1525,
      "38rb": 1526,
      "chop": 1527,
      "tabur": 1528,
      "kel": 1529,
      "140": 1530,
      "270": 1531,
      "than": 1532,
      "deep": 1533,
      "koloke": 1534,
      "68rb": 1535,
      "21k": 1536,
      "salat": 1537,
      "thanks": 1538,
      "20k": 1539,
      "28k": 1540,
      "42rb": 1541,
      "jop": 1542,
      "##ole": 1543,
      "rp25rb": 1544,
      "53k": 1545,
      "rempela": 1546,
      "montok": 1547,
      "jopok": 1548,
      "##eon": 1549,
      "##ort": 1550,
      "##opotong": 1551,
      "tepung": 1552,
      "35k": 1553,
      "45rb": 1554,
      "god": 1555,
      "lump": 1556,
      "##ongk": 1557,
      "##arga": 1558,
      "rp10rb": 1559,
      "##boo": 1560,
      "sambelan": 1561,
      "ladopotong": 1562,
      "55k": 1563,
      "62k": 1564,
      "75k": 1565,
      "pap": 1566,
      "rp44rb": 1567,
      "27k": 1568,
      "kimboo": 1569,
      "durian": 1570,
      "whole": 1571,
      "39rb": 1572,
      "62rb": 1573,
      "nh": 1574,
      "nharga": 1575,
      "49rb": 1576,
      "dir": 1577,
      "burn": 1578,
      "nyayap": 1579,
      "21rb": 1580,
      "25k": 1581,
      "52rb": 1582,
      "nest": 1583,
      "rp6rb": 1584,
      "##eshi": 1585,
      "##imeshi": 1586,
      "57k": 1587,
      "yakimeshi": 1588,
      "55rb": 1589,
      "68k": 1590,
      "##par": 1591,
      "10rb": 1592,
      "##agus": 1593,
      "rp14rb": 1594,
      "rp28rb": 1595,
      "aspar": 1596,
      "omelete": 1597,
      "asparagus": 1598,
      "12k": 1599,
      "qor": 1600,
      "ramy": 1601,
      "rp21rb": 1602,
      "kampong": 1603,
      "goch": 1604,
      "cheecorn": 1605,
      "qorma": 1606,
      "16k": 1607,
      "10k": 1608,
      "rp19": 1609,
      "rp34rb": 1610,
      "##egalin": 1611,
      "mozza": 1612,
      "tengiri": 1613,
      "poach": 1614,
      "mauuuuu": 1615,
      "diregalin": 1616,
      "nestum": 1617,
      "12rb": 1618,
      "8rb": 1619,
      "fur": 1620,
      "rp15rb": 1621,
      "rp31rb": 1622,
      "panggangan": 1623,
      "short": 1624,
      "##ujang": 1625,
      "godog": 1626,
      "ramyeon": 1627,
      "gochujang": 1628,
      "poached": 1629,
      "25rb": 1630,
      "44k": 1631,
      "flo": 1632,
      "tum": 1633,
      "uduk": 1634,
      "rp58rb": 1635,
      "##coffee": 1636,
      "rawit": 1637,
      "juice": 1638,
      "burnas": 1639,
      "in": 1640,
      "##mb": 1641,
      "##plate": 1642,
      "bscoffee": 1643,
      "liwet": 1644,
      "tumis": 1645,
      "57rb": 1646,
      "58k": 1647,
      "tongk": 1648,
      "##opa": 1649,
      "##ine": 1650,
      "krisp": 1651,
      "polosan": 1652,
      "lumpia": 1653,
      "shortplate": 1654,
      "tongkol": 1655,
      "34k": 1656,
      "copa": 1657,
      "mumer": 1658,
      "##ard": 1659,
      "rp65rb": 1660,
      "112": 1661,
      "288": 1662,
      "kriting": 1663,
      "38k": 1664,
      "##ence": 1665,
      "##urence": 1666,
      "##aiwan": 1667,
      "laurence": 1668,
      "##iz": 1669,
      "##apa": 1670,
      "kue": 1671,
      "rp38rb": 1672,
      "udangpotong": 1673,
      "katsudon": 1674,
      "34rb": 1675,
      "49k": 1676,
      "bara": 1677,
      "sarang": 1678,
      "kelapa": 1679,
      "paprika": 1680,
      "14k": 1681,
      "orit": 1682,
      "##ndog": 1683,
      "252": 1684,
      "71k": 1685,
      "##aiwanese": 1686,
      "oritaiwanese": 1687,
      "3rb": 1688,
      "##binasi": 1689,
      "rp3rb": 1690,
      "gemoy": 1691,
      "semut": 1692,
      "67k": 1693,
      "krispy": 1694,
      "65k": 1695,
      "74rb": 1696,
      "sed": 1697,
      "##pis": 1698,
      "rp8rb": 1699,
      "22k": 1700,
      "71rb": 1701,
      "obat": 1702,
      "##ami": 1703,
      "192": 1704,
      "69k": 1705,
      "kombinasi": 1706,
      "smoothies": 1707,
      "vegan": 1708,
      "##land": 1709,
      "hargs": 1710,
      "bost": 1711,
      "rp75rb": 1712,
      "gulung": 1713,
      "boston": 1714,
      "74k": 1715,
      "rp9rb": 1716,
      "mapan": 1717,
      "seaso": 1718,
      "corndog": 1719,
      "35rb": 1720,
      "65rb": 1721,
      "9k": 1722,
      "wah": 1723,
      "##dge": 1724,
      "rp17": 1725,
      "rp47rb": 1726,
      "rp62rb": 1727,
      "bleu": 1728,
      "200": 1729,
      "46k": 1730,
      "69rb": 1731,
      "maju": 1732,
      "siyap": 1733,
      "chun": 1734,
      "porri": 1735,
      "rp53rb": 1736,
      "timun": 1737,
      "mandhi": 1738,
      "wahaha": 1739,
      "siyaph": 1740,
      "porridge": 1741,
      "300": 1742,
      "6rb": 1743,
      "8k": 1744,
      "frap": 1745,
      "pel": 1746,
      "##arela": 1747,
      "rp17rb": 1748,
      "rp39rb": 1749,
      "temp": 1750,
      "seasoning": 1751,
      "15rb": 1752,
      "73rb": 1753,
      "rp13rb": 1754,
      "rp57rb": 1755,
      "##ikake": 1756,
      "##undeng": 1757,
      "furikake": 1758,
      "sedap": 1759,
      "46rb": 1760,
      "deg": 1761,
      "##kt": 1762,
      "##ey": 1763,
      "##cumi": 1764,
      "##alik": 1765,
      "siapp": 1766,
      "rp26rb": 1767,
      "rp46rb": 1768,
      "rp68rb": 1769,
      "160": 1770,
      "19k": 1771,
      "17k": 1772,
      "33k": 1773,
      "serundeng": 1774,
      "ac": 1775,
      "lo": 1776,
      "##yaap": 1777,
      "siia": 1778,
      "siantar": 1779,
      "siyaap": 1780,
      "##tawan": 1781,
      "rp23rb": 1782,
      "udangcumi": 1783,
      "jutawan": 1784,
      "tabalik": 1785,
      "##resso": 1786,
      "darat": 1787,
      "degan": 1788,
      "siiaapp": 1789,
      "ati": 1790,
      "##kong": 1791,
      "##30rb": 1792,
      "rp22rb": 1793,
      "coke": 1794,
      "mozzarela": 1795,
      "14rb": 1796,
      "26rb": 1797,
      "sant": 1798,
      "##engah": 1799,
      "##emami": 1800,
      "crab": 1801,
      "rp16": 1802,
      "rp11rb": 1803,
      "spag": 1804,
      "setengah": 1805,
      "quemami": 1806,
      "chunks": 1807,
      "6k": 1808,
      "7k": 1809,
      "7rb": 1810,
      "muda": 1811,
      "##board": 1812,
      "breke": 1813,
      "longboard": 1814,
      "pelangi": 1815,
      "brekele": 1816,
      "ci": 1817,
      "pal": 1818,
      "##lok": 1819,
      "##fc": 1820,
      "##eplok": 1821,
      "rp43rb": 1822,
      "nipis": 1823,
      "11rb": 1824,
      "mes": 1825,
      "##kit": 1826,
      "##presso": 1827,
      "rp5rb": 1828,
      "##ock": 1829,
      "jamet": 1830,
      "pencet": 1831,
      "59rb": 1832,
      "ceplok": 1833,
      "fat": 1834,
      "thailand": 1835,
      "kare": 1836,
      "guling": 1837,
      "cokelat": 1838,
      "4rb": 1839,
      "43rb": 1840,
      "corn": 1841,
      "sag": 1842,
      "tal": 1843,
      "tako": 1844,
      "wor": 1845,
      "##antea": 1846,
      "##oll": 1847,
      "bangkit": 1848,
      "23k": 1849,
      "59k": 1850,
      "menantea": 1851,
      "tempura": 1852,
      "100": 1853,
      "13rb": 1854,
      "22rb": 1855,
      "29rb": 1856,
      "58rb": 1857,
      "kur": 1858,
      "kas": 1859,
      "pkt": 1860,
      "##oeng": 1861,
      "terocok": 1862,
      "rp74rb": 1863,
      "43k": 1864,
      "melati": 1865,
      "aceh": 1866,
      "santap": 1867,
      "26k": 1868,
      "##ism": 1869,
      "rp33rb": 1870,
      "kampoeng": 1871,
      "rp73rb": 1872,
      "takoyaki": 1873,
      "15k": 1874,
      "41rb": 1875,
      "61rb": 1876,
      "dfc": 1877,
      "siaap": 1878,
      "buaya": 1879,
      "rp37rb": 1880,
      "##andan": 1881,
      "##arian": 1882,
      "singkong": 1883,
      "veget": 1884,
      "cocop": 1885,
      "meses": 1886,
      "23rb": 1887,
      "5k": 1888,
      "29k": 1889,
      "leci": 1890,
      "regular": 1891,
      "wortel": 1892,
      "cocopandan": 1893,
      "3k": 1894,
      "sang": 1895,
      "##jan": 1896,
      "rp4rb": 1897,
      "belimb": 1898,
      "rp41rb": 1899,
      "rp61rb": 1900,
      "belimbing": 1901,
      "53rb": 1902,
      "lu": 1903,
      "##mi": 1904,
      "rp7rb": 1905,
      "rp27": 1906,
      "marjan": 1907,
      "51k": 1908,
      "ciap": 1909,
      "sagu": 1910,
      "vegetarian": 1911,
      "67rb": 1912,
      "an": 1913,
      "arbe": 1914,
      "roll": 1915,
      "##ila": 1916,
      "##bal": 1917,
      "##ala": 1918,
      "rp67rb": 1919,
      "balap": 1920,
      "dower": 1921,
      "arbei": 1922,
      "fru": 1923,
      "jas": 1924,
      "rasa": 1925,
      "yum": 1926,
      "##nam": 1927,
      "rp29rb": 1928,
      "kasar": 1929,
      "##err": 1930,
      "31rb": 1931,
      "33rb": 1932,
      "47rb": 1933,
      "##aaap": 1934,
      "##cabe": 1935,
      "##keum": 1936,
      "ayamtelur": 1937,
      "ceplokcabe": 1938,
      "can": 1939,
      "ndo": 1940,
      "##ua": 1941,
      "siaaap": 1942,
      "pork": 1943,
      "13k": 1944,
      "31k": 1945,
      "47k": 1946,
      "##weerr": 1947,
      "sanger": 1948,
      "ndoweerr": 1949,
      "ndoweerrr": 1950,
      "5rb": 1951,
      "bit": 1952,
      "gang": 1953,
      "bokeum": 1954,
      "rp55rb": 1955,
      "41k": 1956,
      "ekor": 1957,
      "frappe": 1958,
      "jasm": 1959,
      "amer": 1960,
      "daw": 1961,
      "kism": 1962,
      "rp19rb": 1963,
      "talas": 1964,
      "fruit": 1965,
      "dawet": 1966,
      "kismis": 1967,
      "19rb": 1968,
      "4k": 1969,
      "kan": 1970,
      "##kis": 1971,
      "##gal": 1972,
      "##yor": 1973,
      "##yum": 1974,
      "rp20": 1975,
      "rp51rb": 1976,
      "11k": 1977,
      "37k": 1978,
      "tomyum": 1979,
      "palmi": 1980,
      "bokeumbab": 1981,
      "jasmine": 1982,
      "palmier": 1983,
      "37rb": 1984,
      "9rb": 1985,
      "espresso": 1986,
      "##uki": 1987,
      "nutri": 1988,
      "frenc": 1989,
      "flower": 1990,
      "dep": 1991,
      "gim": 1992,
      "105": 1993,
      "kopyor": 1994,
      "bites": 1995,
      "americ": 1996,
      "depan": 1997,
      "17rb": 1998,
      "joy": 1999,
      "soklat": 2000,
      "##caw": 2001,
      "rp15": 2002,
      "regal": 2003,
      "blend": 2004,
      "dancaw": 2005,
      "kurma": 2006,
      "nung": 2007,
      "##ful": 2008,
      "mayo": 2009,
      "73k": 2010,
      "loco": 2011,
      "lock": 2012,
      "pat": 2013,
      "##suki": 2014,
      "##wak": 2015,
      "rp18": 2016,
      "162": 2017,
      "garuda": 2018,
      "bakmi": 2019,
      "arang": 2020,
      "##down": 2021,
      "nungget": 2022,
      "lockdown": 2023,
      "isi": 2024,
      "rp22": 2025,
      "kepala": 2026,
      "##chino": 2027,
      "rp71rb": 2028,
      "duoble": 2029,
      "shaps": 2030,
      "joyful": 2031,
      "hun": 2032,
      "##ja": 2033,
      "##tol": 2034,
      "##ver": 2035,
      "##wee": 2036,
      "##za": 2037,
      "mant": 2038,
      "markis": 2039,
      "336": 2040,
      "nyel": 2041,
      "tomyumsuki": 2042,
      "gimbal": 2043,
      "gum": 2044,
      "##les": 2045,
      "pentol": 2046,
      "##eeer": 2047,
      "##stick": 2048,
      "dowee": 2049,
      "cappuchino": 2050,
      "luwak": 2051,
      "jal": 2052,
      "soes": 2053,
      "reguler": 2054,
      "inst": 2055,
      "doweeeeer": 2056,
      "lam": 2057,
      "slic": 2058,
      "##agan": 2059,
      "stro": 2060,
      "jeragan": 2061,
      "##stra": 2062,
      "berry": 2063,
      "nus": 2064,
      "##ass": 2065,
      "crabstick": 2066,
      "kane": 2067,
      "mantap": 2068,
      "seger": 2069,
      "rp59rb": 2070,
      "nyawang": 2071,
      "##wberry": 2072,
      "114": 2073,
      "hangates": 2074,
      "sukur": 2075,
      "jos": 2076,
      "tu": 2077,
      "##isweet": 2078,
      "baksos": 2079,
      "##emek": 2080,
      "rp69rb": 2081,
      "320": 2082,
      "sarisweet": 2083,
      "ekstra": 2084,
      "instand": 2085,
      "nusantar": 2086,
      "mak": 2087,
      "mek": 2088,
      "pem": 2089,
      "##ara": 2090,
      "225": 2091,
      "hal": 2092,
      "##ebel": 2093,
      "##ula": 2094,
      "rp29": 2095,
      "##imal": 2096,
      "empela": 2097,
      "complit": 2098,
      "brli": 2099,
      "nyebel": 2100,
      "animal": 2101,
      "canai": 2102,
      "slice": 2103,
      "pemula": 2104,
      "nyebelin": 2105,
      "day": 2106,
      "good": 2107,
      "vi": 2108,
      "##boy": 2109,
      "##ikaya": 2110,
      "sarikaya": 2111,
      "americano": 2112,
      "350": 2113,
      "doer": 2114,
      "josua": 2115,
      "nast": 2116,
      "kribo": 2117,
      "nastar": 2118,
      "kal": 2119,
      "vol": 2120,
      "##cano": 2121,
      "##opi": 2122,
      "##oka": 2123,
      "156": 2124,
      "markisah": 2125,
      "nusantara": 2126,
      "no": 2127,
      "nbel": 2128,
      "##awi": 2129,
      "61k": 2130,
      "nyemek": 2131,
      "##bruk": 2132,
      "tubruk": 2133,
      "mekar": 2134,
      "volcano": 2135,
      "nbeli": 2136,
      "tul": 2137,
      "##oel": 2138,
      "peach": 2139,
      "jadoel": 2140,
      "330": 2141,
      "##endol": 2142,
      "strowberry": 2143,
      "tulang": 2144,
      "cendol": 2145,
      "kobo": 2146,
      "##sak": 2147,
      "##yge": 2148,
      "##vel": 2149,
      "##etnam": 2150,
      "##esan": 2151,
      "sour": 2152,
      "220": 2153,
      "toples": 2154,
      "vietnam": 2155,
      "koboi": 2156,
      "##ygeboy": 2157,
      "malang": 2158,
      "ten": 2159,
      "##gi": 2160,
      "rp37": 2161,
      "terasi": 2162,
      "##upuk": 2163,
      "capu": 2164,
      "315": 2165,
      "bli": 2166,
      "mnta": 2167,
      "tenis": 2168,
      "pac": 2169,
      "tehaso": 2170,
      "110": 2171,
      "224": 2172,
      "bland": 2173,
      "goong": 2174,
      "level": 2175,
      "tehasoygeboy": 2176,
      "fre": 2177,
      "up": 2178,
      "378": 2179,
      "204": 2180,
      "260": 2181,
      "pink": 2182,
      "##zat": 2183,
      "##imut": 2184,
      "128": 2185,
      "##antung": 2186,
      "siram": 2187,
      "cappuc": 2188,
      "lezat": 2189,
      "selimut": 2190,
      "jalok": 2191,
      "capucino": 2192,
      "ga": 2193,
      "kro": 2194,
      "##da": 2195,
      "##anak": 2196,
      "##onom": 2197,
      "rp23": 2198,
      "198": 2199,
      "450": 2200,
      "spun": 2201,
      "mnt": 2202,
      "freze": 2203,
      "##dur": 2204,
      "gorengan": 2205,
      "104": 2206,
      "cran": 2207,
      "cindur": 2208,
      "beranak": 2209,
      "blander": 2210,
      "wed": 2211,
      "##pot": 2212,
      "504": 2213,
      "##bond": 2214,
      "spunbond": 2215,
      "gantung": 2216,
      "pur": 2217,
      "sum": 2218,
      "##oan": 2219,
      "salad": 2220,
      "sirsak": 2221,
      "mintk": 2222,
      "cappuccino": 2223,
      "cranberry": 2224,
      "bima": 2225,
      "gold": 2226,
      "##fe": 2227,
      "138": 2228,
      "189": 2229,
      "empat": 2230,
      "##lakes": 2231,
      "cet": 2232,
      "kesan": 2233,
      "mend": 2234,
      "##kopi": 2235,
      "##yok": 2236,
      "##ond": 2237,
      "belikopi": 2238,
      "segi": 2239,
      "batagor": 2240,
      "ekonom": 2241,
      "cetar": 2242,
      "ekonomis": 2243,
      "78": 2244,
      "##hang": 2245,
      "##flakes": 2246,
      "gepang": 2247,
      "putihsusu": 2248,
      "432": 2249,
      "##pulat": 2250,
      "##kuahgoreng": 2251,
      "alpulat": 2252,
      "poyo": 2253,
      "cornflakes": 2254,
      "patin": 2255,
      "kroyok": 2256,
      "cla": 2257,
      "jelet": 2258,
      "kon": 2259,
      "lako": 2260,
      "maau": 2261,
      "##oma": 2262,
      "135": 2263,
      "jeroan": 2264,
      "sosistelur": 2265,
      "kerupuk": 2266,
      "tulangan": 2267,
      "ho": 2268,
      "##ypot": 2269,
      "##hgoreng": 2270,
      "pemp": 2271,
      "##ongan": 2272,
      "kuhgoreng": 2273,
      "setan": 2274,
      "pacar": 2275,
      "wedhang": 2276,
      "claypot": 2277,
      "jeletot": 2278,
      "pempek": 2279,
      "ck": 2280,
      "baksokuahgoreng": 2281,
      "rp25": 2282,
      "semar": 2283,
      "aroma": 2284,
      "lamongan": 2285,
      "golden": 2286,
      "##temp": 2287,
      "##sop": 2288,
      "##etahu": 2289,
      "##coan": 2290,
      "caffe": 2291,
      "soursop": 2292,
      "gacoan": 2293,
      "mendem": 2294,
      "moka": 2295,
      "sotong": 2296,
      "##du": 2297,
      "susus": 2298,
      "buntutgoreng": 2299,
      "konro": 2300,
      "##tempetahu": 2301,
      "kos": 2302,
      "mao": 2303,
      "telortempetahu": 2304,
      "susususu": 2305,
      "##ip": 2306,
      "##nie": 2307,
      "130": 2308,
      "cheer": 2309,
      "264": 2310,
      "betawi": 2311,
      "kaldu": 2312,
      "88": 2313,
      "aduk": 2314,
      "mininasi": 2315,
      "kuda": 2316,
      "##bakso": 2317,
      "sereh": 2318,
      "okz": 2319,
      "unnie": 2320,
      "adukan": 2321,
      "coto": 2322,
      "mangk": 2323,
      "tabagor": 2324,
      "halus": 2325,
      "gre": 2326,
      "##kur": 2327,
      "sobat": 2328,
      "green": 2329,
      "kek": 2330,
      "muj": 2331,
      "qey": 2332,
      "ukur": 2333,
      "##uh": 2334,
      "##inian": 2335,
      "##uka": 2336,
      "##anti": 2337,
      "##assar": 2338,
      "makassar": 2339,
      "ukuran": 2340,
      "##bang": 2341,
      "##lep": 2342,
      "##enila": 2343,
      "susanti": 2344,
      "guramenila": 2345,
      "cafe": 2346,
      "deng": 2347,
      "##bawa": 2348,
      "##icha": 2349,
      "##air": 2350,
      "136": 2351,
      "sukara": 2352,
      "ekoran": 2353,
      "sumbawa": 2354,
      "mangkok": 2355,
      "kekinian": 2356,
      "dengan": 2357,
      "sukaraja": 2358,
      "puk": 2359,
      "passi": 2360,
      "sad": 2361,
      "uke": 2362,
      "sip": 2363,
      "##icorn": 2364,
      "parut": 2365,
      "seram": 2366,
      "unicorn": 2367,
      "mochacino": 2368,
      "pentolbakso": 2369,
      "passion": 2370,
      "bay": 2371,
      "ruj": 2372,
      "##ehot": 2373,
      "milktea": 2374,
      "spaget": 2375,
      "purin": 2376,
      "rujak": 2377,
      "tori": 2378,
      "rp28": 2379,
      "102": 2380,
      "##agon": 2381,
      "rp31": 2382,
      "marie": 2383,
      "icehot": 2384,
      "lady": 2385,
      "dragon": 2386,
      "sadis": 2387,
      "##nies": 2388,
      "420": 2389,
      "bunnies": 2390,
      "pukpuk": 2391,
      "##sro": 2392,
      "okeh": 2393,
      "##okok": 2394,
      "moch": 2395,
      "okokok": 2396,
      "mujair": 2397,
      "##inger": 2398,
      "rp24": 2399,
      "sosro": 2400,
      "popping": 2401,
      "##bima": 2402,
      "##otak": 2403,
      "440": 2404,
      "pencit": 2405,
      "kukubima": 2406,
      "kosuka": 2407,
      "tump": 2408,
      "##alapan": 2409,
      "strawberrysusu": 2410,
      "tumpeng": 2411,
      "noke": 2412,
      "india": 2413,
      "otakotak": 2414,
      "rempah": 2415,
      "ginger": 2416,
      "##oot": 2417,
      "490": 2418,
      "##onde": 2419,
      "oce": 2420,
      "lobak": 2421,
      "tok": 2422,
      "key": 2423,
      "lover": 2424,
      "spagethi": 2425,
      "pas": 2426,
      "ronde": 2427,
      "##sc": 2428,
      "gepeng": 2429,
      "shoot": 2430,
      "cok": 2431,
      "stik": 2432,
      "560": 2433,
      "buttersc": 2434,
      "filet": 2435,
      "76": 2436,
      "lalapan": 2437,
      "pun": 2438,
      "pakai": 2439,
      "256": 2440,
      "goc": 2441,
      "##otch": 2442,
      "singap": 2443,
      "skelep": 2444,
      "noks": 2445,
      "goceng": 2446,
      "tokyo": 2447,
      "butterscotch": 2448,
      "abang": 2449,
      "rp30": 2450,
      "kwetiao": 2451,
      "batang": 2452,
      "mandi": 2453,
      "houj": 2454,
      "punel": 2455,
      "rp120rb": 2456,
      "120rb": 2457,
      "296": 2458,
      "390": 2459,
      "340": 2460,
      "nutela": 2461,
      "houjicha": 2462,
      "mur": 2463,
      "186": 2464,
      "342": 2465,
      "rp39": 2466,
      "manta": 2467,
      "120k": 2468,
      "153": 2469,
      "396": 2470,
      "576": 2471,
      "rag": 2472,
      "##alatte": 2473,
      "196": 2474,
      "171": 2475,
      "310": 2476,
      "520": 2477,
      "mochalatte": 2478,
      "cokban": 2479,
      "rud": 2480,
      "uw": 2481,
      "124": 2482,
      "324": 2483,
      "306": 2484,
      "singapur": 2485,
      "mantao": 2486,
      "rudal": 2487,
      "mba": 2488,
      "230": 2489,
      "370": 2490,
      "290": 2491,
      "392": 2492,
      "##undan": 2493,
      "torio": 2494,
      "pasundan": 2495,
      "400": 2496,
      "pic": 2497,
      "uwuh": 2498,
      "250": 2499,
      "448": 2500,
      "414": 2501,
      "murmer": 2502,
      "ragut": 2503,
      "99": 2504,
      "##amat": 2505,
      "##ollo": 2506,
      "148": 2507,
      "180rb": 2508,
      "174": 2509,
      "chiz": 2510,
      "165": 2511,
      "222": 2512,
      "selamat": 2513,
      "92": 2514,
      "picollo": 2515,
      "##jar": 2516,
      "chizu": 2517,
      "bisaa": 2518,
      "152": 2519,
      "384": 2520,
      "360rb": 2521,
      "232": 2522,
      "630": 2523,
      "480": 2524,
      "banjar": 2525,
      "rp180rb": 2526,
      "147": 2527,
      "175": 2528,
      "rp40": 2529,
      "150rb": 2530,
      "150k": 2531,
      "441": 2532,
      "rp26": 2533,
      "170": 2534,
      "207": 2535,
      "98": 2536,
      "272": 2537,
      "195": 2538,
      "rp144rb": 2539,
      "81": 2540,
      "140k": 2541,
      "144k": 2542,
      "184": 2543,
      "245": 2544,
      "80rb": 2545,
      "rp36": 2546,
      "rp32": 2547,
      "117": 2548,
      "228": 2549,
      "312": 2550,
      "90rb": 2551,
      "234": 2552,
      "rp90rb": 2553,
      "rp33": 2554,
      "540": 2555,
      "all": 2556,
      "rp96rb": 2557,
      "gel": 2558,
      "rp150rb": 2559,
      "rp280rb": 2560,
      "176": 2561,
      "90k": 2562,
      "dau": 2563,
      "piz": 2564,
      "rp43": 2565,
      "248": 2566,
      "280rb": 2567,
      "may": 2568,
      "rp360rb": 2569,
      "rp41": 2570,
      "116": 2571,
      "210rb": 2572,
      "190": 2573,
      "294": 2574,
      "rp126rb": 2575,
      "daun": 2576,
      "84rb": 2577,
      "180k": 2578,
      "276": 2579,
      "pizza": 2580,
      "96rb": 2581,
      "##bi": 2582,
      "rp47": 2583,
      "80k": 2584,
      "rp240rb": 2585,
      "rp216rb": 2586,
      "rp80rb": 2587,
      "208": 2588,
      "##kn": 2589,
      "rp44": 2590,
      "rp49": 2591,
      "rp210rb": 2592,
      "ms": 2593,
      "108rb": 2594,
      "rp108rb": 2595,
      "mskn": 2596,
      "600": 2597,
      "ram": 2598,
      "96k": 2599,
      "288k": 2600,
      "408": 2601,
      "rp34": 2602,
      "rp51": 2603,
      "arep": 2604,
      "pr": 2605,
      "##hu": 2606,
      "108k": 2607,
      "rp46": 2608,
      "126k": 2609,
      "140rb": 2610,
      "280k": 2611,
      "##sh": 2612,
      "144rb": 2613,
      "168rb": 2614,
      "240k": 2615,
      "mauuuu": 2616,
      "nmo": 2617,
      "rp100rb": 2618,
      "252k": 2619,
      "300rb": 2620,
      "84k": 2621,
      "360k": 2622,
      "300k": 2623,
      "mauk": 2624,
      "rp42": 2625,
      "240rb": 2626,
      "rp140rb": 2627,
      "nmw": 2628,
      "gelem": 2629,
      "rp35": 2630,
      "210k": 2631,
      "rp84rb": 2632,
      "rp168rb": 2633,
      "200k": 2634,
      "mai": 2635,
      "216k": 2636,
      "rp132rb": 2637,
      "100rb": 2638,
      "288rb": 2639,
      "mahu": 2640,
      "nmau": 2641,
      "maok": 2642,
      "100k": 2643,
      "132rb": 2644,
      "160rb": 2645,
      "maw": 2646,
      "112rb": 2647,
      "270k": 2648,
      "mauuuuuu": 2649,
      "rp200rb": 2650,
      "243": 2651,
      "200rb": 2652,
      "mauu": 2653,
      "orang": 2654,
      "rp300rb": 2655,
      "126rb": 2656,
      "tun": 2657,
      "216rb": 2658,
      "orange": 2659,
      "pud": 2660,
      "##ato": 2661,
      "192k": 2662,
      "##shake": 2663,
      "mw": 2664,
      "rp160rb": 2665,
      "168k": 2666,
      "maauuu": 2667,
      "on": 2668,
      "132k": 2669,
      "160k": 2670,
      "198rb": 2671,
      "rp192rb": 2672,
      "maoo": 2673,
      "##gg": 2674,
      "270rb": 2675,
      "rp112rb": 2676,
      "mauuuuuuu": 2677,
      "tuna": 2678,
      "egg": 2679,
      "rp220rb": 2680,
      "nmaw": 2681,
      "rp270rb": 2682,
      "##het": 2683,
      "rp38": 2684,
      "504k": 2685,
      "177": 2686,
      "304": 2687,
      "ramen": 2688,
      "##bis": 2689,
      "##isss": 2690,
      "rp320rb": 2691,
      "215": 2692,
      "424": 2693,
      "567": 2694,
      "549": 2695,
      "mnisss": 2696,
      "104k": 2697,
      "rp260rb": 2698,
      "112k": 2699,
      "371": 2700,
      "spaghet": 2701,
      "is": 2702,
      "##tah": 2703,
      "rp45": 2704,
      "511": 2705,
      "512": 2706,
      "462": 2707,
      "610": 2708,
      "##ssss": 2709,
      "pedesssss": 2710,
      "94": 2711,
      "cant": 2712,
      "chi": 2713,
      "kukus": 2714,
      "rp48": 2715,
      "142": 2716,
      "biza": 2717,
      "156rb": 2718,
      "252rb": 2719,
      "315rb": 2720,
      "680": 2721,
      "rp336rb": 2722,
      "102k": 2723,
      "135k": 2724,
      "372": 2725,
      "351": 2726,
      "450k": 2727,
      "570": 2728,
      "477": 2729,
      "640": 2730,
      "rp288rb": 2731,
      "canton": 2732,
      "105rb": 2733,
      "189rb": 2734,
      "279": 2735,
      "369": 2736,
      "322": 2737,
      "203": 2738,
      "455": 2739,
      "416": 2740,
      "460": 2741,
      "111": 2742,
      "266": 2743,
      "350k": 2744,
      "450rb": 2745,
      "592": 2746,
      "666": 2747,
      "mentah": 2748,
      "rp224rb": 2749,
      "rp252rb": 2750,
      "spaghetti": 2751,
      "##jit": 2752,
      "128k": 2753,
      "224k": 2754,
      "329": 2755,
      "320k": 2756,
      "204k": 2757,
      "336rb": 2758,
      "260k": 2759,
      "423": 2760,
      "420k": 2761,
      "648": 2762,
      "milkshake": 2763,
      "657": 2764,
      "740": 2765,
      "almon": 2766,
      "bsa": 2767,
      "rp114rb": 2768,
      "102rb": 2769,
      "##oni": 2770,
      "130k": 2771,
      "114k": 2772,
      "159": 2773,
      "375": 2774,
      "204rb": 2775,
      "438": 2776,
      "413": 2777,
      "580": 2778,
      "almond": 2779,
      "fres": 2780,
      "sabi": 2781,
      "##iss": 2782,
      "rp420rb": 2783,
      "122": 2784,
      "134": 2785,
      "220k": 2786,
      "420rb": 2787,
      "357": 2788,
      "434": 2789,
      "620": 2790,
      "750": 2791,
      "rp135rb": 2792,
      "85": 2793,
      "pd": 2794,
      "106": 2795,
      "104rb": 2796,
      "rp59": 2797,
      "coff": 2798,
      "282": 2799,
      "258": 2800,
      "265": 2801,
      "264rb": 2802,
      "444": 2803,
      "510": 2804,
      "525": 2805,
      "558": 2806,
      "710": 2807,
      "rp88rb": 2808,
      "pdng": 2809,
      "500": 2810,
      "700": 2811,
      "78k": 2812,
      "86": 2813,
      "273": 2814,
      "364": 2815,
      "320rb": 2816,
      "335": 2817,
      "264k": 2818,
      "432rb": 2819,
      "410": 2820,
      "522": 2821,
      "464": 2822,
      "504rb": 2823,
      "670": 2824,
      "rp130rb": 2825,
      "rp156rb": 2826,
      "bisaaa": 2827,
      "isa": 2828,
      "fresh": 2829,
      "coffe": 2830,
      "fish": 2831,
      "ket": 2832,
      "nbis": 2833,
      "rp330rb": 2834,
      "rp450rb": 2835,
      "123": 2836,
      "mojit": 2837,
      "225k": 2838,
      "235": 2839,
      "231": 2840,
      "255": 2841,
      "330rb": 2842,
      "612": 2843,
      "rp198rb": 2844,
      "nbisa": 2845,
      "mb": 2846,
      "sau": 2847,
      "##ess": 2848,
      "136rb": 2849,
      "136k": 2850,
      "115": 2851,
      "141": 2852,
      "213": 2853,
      "185": 2854,
      "189k": 2855,
      "225rb": 2856,
      "368": 2857,
      "236": 2858,
      "328": 2859,
      "402": 2860,
      "496": 2861,
      "513": 2862,
      "387": 2863,
      "590": 2864,
      "675": 2865,
      "603": 2866,
      "rp204rb": 2867,
      "95": 2868,
      "pot": 2869,
      "125": 2870,
      "130rb": 2871,
      "110rb": 2872,
      "219": 2873,
      "162k": 2874,
      "155": 2875,
      "manisss": 2876,
      "355": 2877,
      "406": 2878,
      "344": 2879,
      "476": 2880,
      "536": 2881,
      "594": 2882,
      "584": 2883,
      "anget": 2884,
      "rp378rb": 2885,
      "87": 2886,
      "91": 2887,
      "105k": 2888,
      "138k": 2889,
      "146": 2890,
      "188": 2891,
      "164": 2892,
      "268": 2893,
      "528": 2894,
      "472": 2895,
      "650": 2896,
      "mbaa": 2897,
      "bab": 2898,
      "##04rb": 2899,
      "rp504rb": 2900,
      "138rb": 2901,
      "145": 2902,
      "212": 2903,
      "162rb": 2904,
      "275": 2905,
      "192rb": 2906,
      "365": 2907,
      "201": 2908,
      "260rb": 2909,
      "295": 2910,
      "399": 2911,
      "427": 2912,
      "308": 2913,
      "456": 2914,
      "660": 2915,
      "621": 2916,
      "rp432rb": 2917,
      "77": 2918,
      "iso": 2919,
      "ubi": 2920,
      "##ade": 2921,
      "154": 2922,
      "246": 2923,
      "426": 2924,
      "639": 2925,
      "483": 2926,
      "544": 2927,
      "468": 2928,
      "469": 2929,
      "530": 2930,
      "385": 2931,
      "380": 2932,
      "585": 2933,
      "mojito": 2934,
      "##ji": 2935,
      "##oney": 2936,
      "128rb": 2937,
      "156k": 2938,
      "376": 2939,
      "333": 2940,
      "292": 2941,
      "305": 2942,
      "430": 2943,
      "488": 2944,
      "##ull": 2945,
      "rp138rb": 2946,
      "rp225rb": 2947,
      "choc": 2948,
      "325": 2949,
      "345": 2950,
      "518": 2951,
      "531": 2952,
      "honey": 2953,
      "tn": 2954,
      "##one": 2955,
      "bisya": 2956,
      "rp52": 2957,
      "119": 2958,
      "284": 2959,
      "378k": 2960,
      "261": 2961,
      "318": 2962,
      "550": 2963,
      "rp189rb": 2964,
      "88k": 2965,
      "93": 2966,
      "bz": 2967,
      "cah": 2968,
      "124rb": 2969,
      "133": 2970,
      "183": 2971,
      "161": 2972,
      "224rb": 2973,
      "312rb": 2974,
      "414k": 2975,
      "486": 2976,
      "470": 2977,
      "552": 2978,
      "rp98rb": 2979,
      "rp162rb": 2980,
      "rp290rb": 2981,
      "sauce": 2982,
      "82": 2983,
      "##uff": 2984,
      "118": 2985,
      "110k": 2986,
      "big": 2987,
      "244": 2988,
      "285": 2989,
      "366": 2990,
      "232k": 2991,
      "rp78rb": 2992,
      "297": 2993,
      "315k": 2994,
      "405": 2995,
      "459": 2996,
      "730": 2997,
      "rp117rb": 2998,
      "rp105rb": 2999,
      "rp414rb": 3000,
      "full": 3001,
      "##angk": 3002,
      "##oki": 3003,
      "rp350rb": 3004,
      "rp630rb": 3005,
      "129": 3006,
      "287": 3007,
      "378rb": 3008,
      "370k": 3009,
      "354": 3010,
      "350rb": 3011,
      "bre": 3012,
      "rp148rb": 3013,
      "rp147rb": 3014,
      "rp136rb": 3015,
      "rp315rb": 3016,
      "mbaak": 3017,
      "78rb": 3018,
      "ki": 3019,
      "to": 3020,
      "##ding": 3021,
      "chip": 3022,
      "238": 3023,
      "259": 3024,
      "205": 3025,
      "352": 3026,
      "343": 3027,
      "568": 3028,
      "690": 3029,
      "sausage": 3030,
      "rp116rb": 3031,
      "rp264rb": 3032,
      "88rb": 3033,
      "92k": 3034,
      "mam": 3035,
      "rp230rb": 3036,
      "rp55": 3037,
      "rp57": 3038,
      "175rb": 3039,
      "234rb": 3040,
      "250rb": 3041,
      "336k": 3042,
      "301": 3043,
      "440rb": 3044,
      "348": 3045,
      "495": 3046,
      "432k": 3047,
      "576rb": 3048,
      "kerip": 3049,
      "rp128rb": 3050,
      "rp104rb": 3051,
      "rp102rb": 3052,
      "keripik": 3053,
      "116rb": 3054,
      "182": 3055,
      "250k": 3056,
      "207rb": 3057,
      "330k": 3058,
      "310k": 3059,
      "312k": 3060,
      "448rb": 3061,
      "520k": 3062,
      "rp110rb": 3063,
      "rp234rb": 3064,
      "pudding": 3065,
      "76rb": 3066,
      "kangk": 3067,
      "sand": 3068,
      "yog": 3069,
      "rp250rb": 3070,
      "rp440rb": 3071,
      "rp540rb": 3072,
      "135rb": 3073,
      "114rb": 3074,
      "217": 3075,
      "220rb": 3076,
      "228k": 3077,
      "256rb": 3078,
      "448k": 3079,
      "441k": 3080,
      "497": 3081,
      "720": 3082,
      "milky": 3083,
      "rp81rb": 3084,
      "rp207rb": 3085,
      "rp245rb": 3086,
      "potato": 3087,
      "kangkung": 3088,
      "ap": 3089,
      "ala": 3090,
      "##chi": 3091,
      "148rb": 3092,
      "184rb": 3093,
      "184k": 3094,
      "245k": 3095,
      "172": 3096,
      "175k": 3097,
      "256k": 3098,
      "306k": 3099,
      "440k": 3100,
      "630rb": 3101,
      "576k": 3102,
      "rp92rb": 3103,
      "ketan": 3104,
      "400rb": 3105,
      "76k": 3106,
      "99rb": 3107,
      "##ber": 3108,
      "##urt": 3109,
      "170rb": 3110,
      "230k": 3111,
      "shake": 3112,
      "vanila": 3113,
      "rp165rb": 3114,
      "rp324rb": 3115,
      "rp490rb": 3116,
      "ca": 3117,
      "soup": 3118,
      "rp54": 3119,
      "rp600rb": 3120,
      "147k": 3121,
      "165k": 3122,
      "198k": 3123,
      "174rb": 3124,
      "228rb": 3125,
      "342rb": 3126,
      "384k": 3127,
      "donut": 3128,
      "rp124rb": 3129,
      "rp174rb": 3130,
      "rp306rb": 3131,
      "rp390rb": 3132,
      "rp392rb": 3133,
      "rp408rb": 3134,
      "rp448rb": 3135,
      "600rb": 3136,
      "##10rb": 3137,
      "rp53": 3138,
      "147rb": 3139,
      "165rb": 3140,
      "153rb": 3141,
      "392k": 3142,
      "306rb": 3143,
      "490k": 3144,
      "630k": 3145,
      "rp99rb": 3146,
      "rp170rb": 3147,
      "rp176rb": 3148,
      "rp222rb": 3149,
      "rp312rb": 3150,
      "rp441rb": 3151,
      "rp384rb": 3152,
      "98k": 3153,
      "99k": 3154,
      "udon": 3155,
      "##yu": 3156,
      "kakap": 3157,
      "rp480rb": 3158,
      "248rb": 3159,
      "196rb": 3160,
      "324k": 3161,
      "208rb": 3162,
      "294rb": 3163,
      "396k": 3164,
      "340k": 3165,
      "342k": 3166,
      "lemonade": 3167,
      "520rb": 3168,
      "croiss": 3169,
      "rp171rb": 3170,
      "rp272rb": 3171,
      "rp294rb": 3172,
      "rp248rb": 3173,
      "amp": 3174,
      "mz": 3175,
      "sun": 3176,
      "##wich": 3177,
      "##ker": 3178,
      "##eme": 3179,
      "##epper": 3180,
      "117rb": 3181,
      "152rb": 3182,
      "190k": 3183,
      "171rb": 3184,
      "296k": 3185,
      "396rb": 3186,
      "##coff": 3187,
      "408k": 3188,
      "540rb": 3189,
      "selai": 3190,
      "blackpepper": 3191,
      "rp175rb": 3192,
      "rp296rb": 3193,
      "rp256rb": 3194,
      "sandwich": 3195,
      "croissant": 3196,
      "for": 3197,
      "ko": 3198,
      "##ple": 3199,
      "##der": 3200,
      "##ft": 3201,
      "##emium": 3202,
      "rp67": 3203,
      "153k": 3204,
      "276rb": 3205,
      "196k": 3206,
      "174k": 3207,
      "222rb": 3208,
      "222k": 3209,
      "370rb": 3210,
      "294k": 3211,
      "392rb": 3212,
      "384rb": 3213,
      "dark": 3214,
      "rp196rb": 3215,
      "rp195rb": 3216,
      "float": 3217,
      "rp153rb": 3218,
      "rp184rb": 3219,
      "rp310rb": 3220,
      "premium": 3221,
      "rp464rb": 3222,
      "oni": 3223,
      "lot": 3224,
      "nen": 3225,
      "tr": 3226,
      "##aas": 3227,
      "##poki": 3228,
      "##ve": 3229,
      "##ert": 3230,
      "biscoff": 3231,
      "124k": 3232,
      "117k": 3233,
      "230rb": 3234,
      "324rb": 3235,
      "290rb": 3236,
      "290k": 3237,
      "390rb": 3238,
      "310rb": 3239,
      "441rb": 3240,
      "toppoki": 3241,
      "340rb": 3242,
      "560rb": 3243,
      "rp276rb": 3244,
      "blended": 3245,
      "rp228rb": 3246,
      "rp370rb": 3247,
      "lotus": 3248,
      "92rb": 3249,
      "am": 3250,
      "maaas": 3251,
      "rp58": 3252,
      "186rb": 3253,
      "272rb": 3254,
      "195k": 3255,
      "rp76rb": 3256,
      "390k": 3257,
      "rp152rb": 3258,
      "nenas": 3259,
      "maaasss": 3260,
      "fl": 3261,
      "rp56": 3262,
      "rp520rb": 3263,
      "152k": 3264,
      "248k": 3265,
      "190rb": 3266,
      "176rb": 3267,
      "234k": 3268,
      "208k": 3269,
      "207k": 3270,
      "##uuuu": 3271,
      "414rb": 3272,
      "480rb": 3273,
      "560k": 3274,
      "540k": 3275,
      "##rikaya": 3276,
      "loaf": 3277,
      "rp232rb": 3278,
      "81rb": 3279,
      "beng": 3280,
      "mm": 3281,
      "srikaya": 3282,
      "##anut": 3283,
      "##onut": 3284,
      "bul": 3285,
      "408rb": 3286,
      "490rb": 3287,
      "##sss": 3288,
      "rp190rb": 3289,
      "puding": 3290,
      "bread": 3291,
      "mmz": 3292,
      "od": 3293,
      "oat": 3294,
      "##ty": 3295,
      "##se": 3296,
      "peanut": 3297,
      "rp340rb": 3298,
      "rp560rb": 3299,
      "tart": 3300,
      "148k": 3301,
      "170k": 3302,
      "moza": 3303,
      "kerang": 3304,
      "##loin": 3305,
      "coconut": 3306,
      "rp186rb": 3307,
      "rp576rb": 3308,
      "600k": 3309,
      "98rb": 3310,
      "93rb": 3311,
      "dess": 3312,
      "maz": 3313,
      "rp400rb": 3314,
      "biji": 3315,
      "232rb": 3316,
      "rp208rb": 3317,
      "rp427rb": 3318,
      "chiken": 3319,
      "yogurt": 3320,
      "dessert": 3321,
      "cer": 3322,
      "del": 3323,
      "##out": 3324,
      "##py": 3325,
      "186k": 3326,
      "245rb": 3327,
      "195rb": 3328,
      "325rb": 3329,
      "530k": 3330,
      "594rb": 3331,
      "648k": 3332,
      "603k": 3333,
      "660k": 3334,
      "lime": 3335,
      "legit": 3336,
      "rp472rb": 3337,
      "baby": 3338,
      "400k": 3339,
      "ked": 3340,
      "kit": 3341,
      "nag": 3342,
      "tam": 3343,
      "##ler": 3344,
      "##bol": 3345,
      "tanp": 3346,
      "434rb": 3347,
      "480k": 3348,
      "550k": 3349,
      "rp205rb": 3350,
      "rp396rb": 3351,
      "rp438rb": 3352,
      "rp477rb": 3353,
      "rp558rb": 3354,
      "ampela": 3355,
      "95k": 3356,
      "hati": 3357,
      "lont": 3358,
      "##bar": 3359,
      "##mbol": 3360,
      "pet": 3361,
      "##ory": 3362,
      "chil": 3363,
      "##ame": 3364,
      "bombol": 3365,
      "##ona": 3366,
      "##oda": 3367,
      "116k": 3368,
      "182rb": 3369,
      "182k": 3370,
      "bika": 3371,
      "164k": 3372,
      "276k": 3373,
      "176k": 3374,
      "456k": 3375,
      "mozzarella": 3376,
      "bluder": 3377,
      "rp142rb": 3378,
      "rp342rb": 3379,
      "rp510rb": 3380,
      "rp459rb": 3381,
      "94rb": 3382,
      "fu": 3383,
      "pu": 3384,
      "soda": 3385,
      "##ig": 3386,
      "##gor": 3387,
      "##ater": 3388,
      "##aisin": 3389,
      "##che": 3390,
      "rp620rb": 3391,
      "111k": 3392,
      "272k": 3393,
      "375k": 3394,
      "335k": 3395,
      "483rb": 3396,
      "387rb": 3397,
      "meat": 3398,
      "##lio": 3399,
      "rp94rb": 3400,
      "rp246rb": 3401,
      "rp305rb": 3402,
      "rp365rb": 3403,
      "onigiri": 3404,
      "ambon": 3405,
      "odeng": 3406,
      "lontong": 3407,
      "86k": 3408,
      "dal": 3409,
      "fr": 3410,
      "he": 3411,
      "ro": 3412,
      "raisin": 3413,
      "tte": 3414,
      "##cake": 3415,
      "macak": 3416,
      "char": 3417,
      "##ago": 3418,
      "rp650rb": 3419,
      "212k": 3420,
      "##ogi": 3421,
      "172rb": 3422,
      "333rb": 3423,
      "rp740rb": 3424,
      "##pao": 3425,
      "352rb": 3426,
      "522rb": 3427,
      "525k": 3428,
      "bungk": 3429,
      "610k": 3430,
      "710k": 3431,
      "650rb": 3432,
      "##aline": 3433,
      "rp292rb": 3434,
      "rp406rb": 3435,
      "tnp": 3436,
      "tnpa": 3437,
      "mamas": 3438,
      "81k": 3439,
      "cal": 3440,
      "cim": 3441,
      "lumer": 3442,
      "sn": 3443,
      "##kat": 3444,
      "##ket": 3445,
      "rib": 3446,
      "bakpao": 3447,
      "rp430rb": 3448,
      "sobek": 3449,
      "rp640rb": 3450,
      "133rb": 3451,
      "142rb": 3452,
      "219rb": 3453,
      "275k": 3454,
      "171k": 3455,
      "259k": 3456,
      "205k": 3457,
      "rp730rb": 3458,
      "296rb": 3459,
      "427k": 3460,
      "351rb": 3461,
      "406rb": 3462,
      "416rb": 3463,
      "544rb": 3464,
      "##rger": 3465,
      "675k": 3466,
      "657rb": 3467,
      "##ack": 3468,
      "rp93rb": 3469,
      "rp215rb": 3470,
      "rp129rb": 3471,
      "rp154rb": 3472,
      "rp185rb": 3473,
      "rp375rb": 3474,
      "rp231rb": 3475,
      "rp304rb": 3476,
      "rp402rb": 3477,
      "praline": 3478,
      "rp385rb": 3479,
      "rp483rb": 3480,
      "rp590rb": 3481,
      "mbaakk": 3482,
      "chips": 3483,
      "500rb": 3484,
      "700k": 3485,
      "94k": 3486,
      "bru": 3487,
      "rum": 3488,
      "##sir": 3489,
      "##apu": 3490,
      "##burger": 3491,
      "##ini": 3492,
      "rp550rb": 3493,
      "##ffon": 3494,
      "145rb": 3495,
      "145k": 3496,
      "217k": 3497,
      "235k": 3498,
      "335rb": 3499,
      "rp720rb": 3500,
      "427rb": 3501,
      "304k": 3502,
      "345rb": 3503,
      "512rb": 3504,
      "518k": 3505,
      "ball": 3506,
      "585rb": 3507,
      "584k": 3508,
      "710rb": 3509,
      "sund": 3510,
      "without": 3511,
      "tip": 3512,
      "rp219rb": 3513,
      "usus": 3514,
      "rp279rb": 3515,
      "rp159rb": 3516,
      "rp238rb": 3517,
      "rp235rb": 3518,
      "rp308rb": 3519,
      "rp261rb": 3520,
      "rp368rb": 3521,
      "rp470rb": 3522,
      "chiffon": 3523,
      "rp486rb": 3524,
      "rp549rb": 3525,
      "rp531rb": 3526,
      "77rb": 3527,
      "85k": 3528,
      "di": 3529,
      "fla": 3530,
      "kap": 3531,
      "ros": 3532,
      "sari": 3533,
      "##be": 3534,
      "##mel": 3535,
      "##aroni": 3536,
      "##ingso": 3537,
      "##int": 3538,
      "bolog": 3539,
      "kup": 3540,
      "massss": 3541,
      "122rb": 3542,
      "129k": 3543,
      "115rb": 3544,
      "185k": 3545,
      "154rb": 3546,
      "246k": 3547,
      "287rb": 3548,
      "tth": 3549,
      "mozar": 3550,
      "236k": 3551,
      "375rb": 3552,
      "371rb": 3553,
      "325k": 3554,
      "rp77rb": 3555,
      "rp710rb": 3556,
      "308rb": 3557,
      "405k": 3558,
      "343k": 3559,
      "497k": 3560,
      "518rb": 3561,
      "512k": 3562,
      "567k": 3563,
      "570k": 3564,
      "460rb": 3565,
      "kerapu": 3566,
      "612rb": 3567,
      "580rb": 3568,
      "750k": 3569,
      "skip": 3570,
      "rp141rb": 3571,
      "rp118rb": 3572,
      "rp82rb": 3573,
      "rp87rb": 3574,
      "rp125rb": 3575,
      "rp164rb": 3576,
      "rp203rb": 3577,
      "rp318rb": 3578,
      "rp405rb": 3579,
      "apple": 3580,
      "##bery": 3581,
      "tipker": 3582,
      "bologn": 3583,
      "skippy": 3584,
      "500k": 3585,
      "en": 3586,
      "hok": 3587,
      "moc": 3588,
      "water": 3589,
      "##gogi": 3590,
      "##03rb": 3591,
      "##21rb": 3592,
      "##39rb": 3593,
      "##oro": 3594,
      "##ark": 3595,
      "ches": 3596,
      "##opic": 3597,
      "rp460rb": 3598,
      "soft": 3599,
      "rp603rb": 3600,
      "rp621rb": 3601,
      "rp639rb": 3602,
      "111rb": 3603,
      "119rb": 3604,
      "213rb": 3605,
      "273k": 3606,
      "244k": 3607,
      "238rb": 3608,
      "231rb": 3609,
      "231k": 3610,
      "372k": 3611,
      "203k": 3612,
      "chocolat": 3613,
      "261k": 3614,
      "424k": 3615,
      "305k": 3616,
      "351k": 3617,
      "497rb": 3618,
      "496k": 3619,
      "511rb": 3620,
      "410rb": 3621,
      "568rb": 3622,
      "522k": 3623,
      "477rb": 3624,
      "531rb": 3625,
      "590k": 3626,
      "592k": 3627,
      "580k": 3628,
      "carte": 3629,
      "rp95rb": 3630,
      "rp119rb": 3631,
      "bagel": 3632,
      "rp217rb": 3633,
      "rp86rb": 3634,
      "rp106rb": 3635,
      "rp255rb": 3636,
      "rp282rb": 3637,
      "rp287rb": 3638,
      "rp434rb": 3639,
      "rp496rb": 3640,
      "rp344rb": 3641,
      "rp355rb": 3642,
      "rp456rb": 3643,
      "tropic": 3644,
      "rp585rb": 3645,
      "bulgogi": 3646,
      "chili": 3647,
      "700rb": 3648,
      "77k": 3649,
      "82rb": 3650,
      "86rb": 3651,
      "87k": 3652,
      "91k": 3653,
      "bas": 3654,
      "kw": 3655,
      "puff": 3656,
      "tw": 3657,
      "trip": 3658,
      "waf": 3659,
      "##ball": 3660,
      "##tu": 3661,
      "##de": 3662,
      "##vor": 3663,
      "##rbon": 3664,
      "sil": 3665,
      "cho": 3666,
      "106k": 3667,
      "##iti": 3668,
      "##onai": 3669,
      "##ill": 3670,
      "118k": 3671,
      "141k": 3672,
      "188k": 3673,
      "164rb": 3674,
      "273rb": 3675,
      "246rb": 3676,
      "369rb": 3677,
      "366k": 3678,
      "369k": 3679,
      "cheeseburger": 3680,
      "265rb": 3681,
      "265k": 3682,
      "305rb": 3683,
      "kari": 3684,
      "357k": 3685,
      "496rb": 3686,
      "495rb": 3687,
      "639k": 3688,
      "511k": 3689,
      "413k": 3690,
      "568k": 3691,
      "570rb": 3692,
      "472k": 3693,
      "468rb": 3694,
      "380k": 3695,
      "640rb": 3696,
      "558rb": 3697,
      "750rb": 3698,
      "680rb": 3699,
      "rp133rb": 3700,
      "love": 3701,
      "rp182rb": 3702,
      "rp371rb": 3703,
      "rp236rb": 3704,
      "rp284rb": 3705,
      "rp364rb": 3706,
      "rp335rb": 3707,
      "rp476rb": 3708,
      "rp497rb": 3709,
      "rp462rb": 3710,
      "rp424rb": 3711,
      "rp455rb": 3712,
      "rp488rb": 3713,
      "mbg": 3714,
      "carbon": 3715,
      "forest": 3716,
      "dalg": 3717,
      "chesee": 3718,
      "91rb": 3719,
      "cu": 3720,
      "ebi": 3721,
      "fan": 3722,
      "it": 3723,
      "kani": 3724,
      "mol": 3725,
      "nas": 3726,
      "pok": 3727,
      "pie": 3728,
      "rh": 3729,
      "##abu": 3730,
      "##dog": 3731,
      "##wa": 3732,
      "bean": 3733,
      "##lee": 3734,
      "125rb": 3735,
      "122k": 3736,
      "133k": 3737,
      "115k": 3738,
      "141rb": 3739,
      "279k": 3740,
      "##oge": 3741,
      "172k": 3742,
      "177k": 3743,
      "368rb": 3744,
      "255rb": 3745,
      "322k": 3746,
      "261rb": 3747,
      "399k": 3748,
      "cinnam": 3749,
      "318k": 3750,
      "424rb": 3751,
      "426rb": 3752,
      "426k": 3753,
      "tanah": 3754,
      "405rb": 3755,
      "402k": 3756,
      "343rb": 3757,
      "510k": 3758,
      "567rb": 3759,
      "464rb": 3760,
      "536k": 3761,
      "648rb": 3762,
      "670k": 3763,
      "584rb": 3764,
      "660rb": 3765,
      "552k": 3766,
      "650k": 3767,
      "621rb": 3768,
      "740rb": 3769,
      "##telor": 3770,
      "rp111rb": 3771,
      "pastry": 3772,
      "cheez": 3773,
      "rp258rb": 3774,
      "rp366rb": 3775,
      "rp369rb": 3776,
      "rp413rb": 3777,
      "rp513rb": 3778,
      "rp426rb": 3779,
      "rp423rb": 3780,
      "rp357rb": 3781,
      "rp594rb": 3782,
      "mbaaa": 3783,
      "mozaru": 3784,
      "tropical": 3785,
      "cinnamon": 3786,
      "cand": 3787,
      "gi": 3788,
      "kh": 3789,
      "klep": 3790,
      "nood": 3791,
      "pin": 3792,
      "rain": 3793,
      "sta": 3794,
      "sawi": 3795,
      "##cur": 3796,
      "##com": 3797,
      "##yuh": 3798,
      "##fu": 3799,
      "##elai": 3800,
      "bomb": 3801,
      "##tas": 3802,
      "##omi": 3803,
      "creme": 3804,
      "##bow": 3805,
      "##ampa": 3806,
      "rp530rb": 3807,
      "##abokki": 3808,
      "123k": 3809,
      "134rb": 3810,
      "155rb": 3811,
      "maryam": 3812,
      "275rb": 3813,
      "279rb": 3814,
      "243rb": 3815,
      "177rb": 3816,
      "hotdog": 3817,
      "366rb": 3818,
      "365rb": 3819,
      "258rb": 3820,
      "376rb": 3821,
      "371k": 3822,
      "329rb": 3823,
      "205rb": 3824,
      "201rb": 3825,
      "333k": 3826,
      "268rb": 3827,
      "266k": 3828,
      "423k": 3829,
      "301rb": 3830,
      "444k": 3831,
      "402rb": 3832,
      "344rb": 3833,
      "459rb": 3834,
      "438rb": 3835,
      "434k": 3836,
      "510rb": 3837,
      "486rb": 3838,
      "488k": 3839,
      "525rb": 3840,
      "470rb": 3841,
      "472rb": 3842,
      "470k": 3843,
      "spark": 3844,
      "464k": 3845,
      "468k": 3846,
      "469k": 3847,
      "530rb": 3848,
      "380rb": 3849,
      "385k": 3850,
      "594k": 3851,
      "670rb": 3852,
      "666rb": 3853,
      "666k": 3854,
      "680k": 3855,
      "bacon": 3856,
      "lid": 3857,
      "rp122rb": 3858,
      "rp273rb": 3859,
      "rp188rb": 3860,
      "lamian": 3861,
      "makaroni": 3862,
      "rp295rb": 3863,
      "rp372rb": 3864,
      "rp376rb": 3865,
      "rp243rb": 3866,
      "rp328rb": 3867,
      "rp329rb": 3868,
      "rp333rb": 3869,
      "rp416rb": 3870,
      "rp444rb": 3871,
      "rp343rb": 3872,
      "rp511rb": 3873,
      "rp468rb": 3874,
      "rp469rb": 3875,
      "mbaaass": 3876,
      "rp670rb": 3877,
      "rp675rb": 3878,
      "rp568rb": 3879,
      "bomboloni": 3880,
      "puyuh": 3881,
      "##melon": 3882,
      "triple": 3883,
      "carbonara": 3884,
      "dalgona": 3885,
      "molen": 3886,
      "klepon": 3887,
      "87rb": 3888,
      "ag": 3889,
      "hom": 3890,
      "muff": 3891,
      "tap": 3892,
      "tampa": 3893,
      "wag": 3894,
      "##kai": 3895,
      "##oe": 3896,
      "##eu": 3897,
      "##ux": 3898,
      "##can": 3899,
      "##car": 3900,
      "##cis": 3901,
      "pear": 3902,
      "##ica": 3903,
      "##ust": 3904,
      "bob": 3905,
      "beer": 3906,
      "rp380rb": 3907,
      "##ley": 3908,
      "rp610rb": 3909,
      "215rb": 3910,
      "219k": 3911,
      "161rb": 3912,
      "159rb": 3913,
      "285rb": 3914,
      "282k": 3915,
      "364rb": 3916,
      "368k": 3917,
      "372rb": 3918,
      "322rb": 3919,
      "328rb": 3920,
      "rp700rb": 3921,
      "266rb": 3922,
      "348k": 3923,
      "345k": 3924,
      "495k": 3925,
      "416k": 3926,
      "488rb": 3927,
      "486k": 3928,
      "528k": 3929,
      "531k": 3930,
      "##antan": 3931,
      "640k": 3932,
      "##ender": 3933,
      "612k": 3934,
      "690rb": 3935,
      "690k": 3936,
      "redv": 3937,
      "552rb": 3938,
      "657k": 3939,
      "polo": 3940,
      "rp145rb": 3941,
      "rp212rb": 3942,
      "rp275rb": 3943,
      "rp155rb": 3944,
      "half": 3945,
      "rp259rb": 3946,
      "rp285rb": 3947,
      "rp399rb": 3948,
      "rp265rb": 3949,
      "rp322rb": 3950,
      "rp410rb": 3951,
      "rp512rb": 3952,
      "rp592rb": 3953,
      "babat": 3954,
      "rp522rb": 3955,
      "rp525rb": 3956,
      "rp552rb": 3957,
      "rp544rb": 3958,
      "kedelai": 3959,
      "rainbow": 3960,
      "muffin": 3961,
      "wagyu": 3962,
      "kaya": 3963,
      "op": 3964,
      "qz": 3965,
      "tender": 3966,
      "##io": 3967,
      "##ue": 3968,
      "##cy": 3969,
      "##yek": 3970,
      "##ht": 3971,
      "##key": 3972,
      "##art": 3973,
      "##buri": 3974,
      "crum": 3975,
      "##chip": 3976,
      "rp500rb": 3977,
      "rp680rb": 3978,
      "rp660rb": 3979,
      "119k": 3980,
      "146rb": 3981,
      "161k": 3982,
      "287k": 3983,
      "364k": 3984,
      "236rb": 3985,
      "238k": 3986,
      "203rb": 3987,
      "201k": 3988,
      "297rb": 3989,
      "292k": 3990,
      "318rb": 3991,
      "308k": 3992,
      "301k": 3993,
      "354rb": 3994,
      "352k": 3995,
      "344k": 3996,
      "456rb": 3997,
      "455rb": 3998,
      "455k": 3999,
      "438k": 4000,
      "639rb": 4001,
      "513rb": 4002,
      "513k": 4003,
      "528rb": 4004,
      "549rb": 4005,
      "477k": 4006,
      "469rb": 4007,
      "720rb": 4008,
      "585k": 4009,
      "558k": 4010,
      "730rb": 4011,
      "621k": 4012,
      "sirloin": 4013,
      "buncis": 4014,
      "rp85rb": 4015,
      "furai": 4016,
      "rp161rb": 4017,
      "rp201rb": 4018,
      "american": 4019,
      "mochi": 4020,
      "rp244rb": 4021,
      "rp354rb": 4022,
      "rp351rb": 4023,
      "oncom": 4024,
      "rp528rb": 4025,
      "rp536rb": 4026,
      "ceres": 4027,
      "snack": 4028,
      "brulee": 4029,
      "hokkai": 4030,
      "silver": 4031,
      "noodle": 4032,
      "redvelvet": 4033,
      "85rb": 4034,
      "95rb": 4035,
      "93k": 4036,
      "ad": 4037,
      "air": 4038,
      "ceu": 4039,
      "dod": 4040,
      "mal": 4041,
      "out": 4042,
      "yo": 4043,
      "yu": 4044,
      "##ko": 4045,
      "##reme": 4046,
      "##nal": 4047,
      "##bingso": 4048,
      "##dar": 4049,
      "##66rb": 4050,
      "##90rb": 4051,
      "##wi": 4052,
      "##for": 4053,
      "##fle": 4054,
      "##ott": 4055,
      "mag": 4056,
      "##ello": 4057,
      "##ata": 4058,
      "##ers": 4059,
      "##ille": 4060,
      "##ost": 4061,
      "rp580rb": 4062,
      "rp666rb": 4063,
      "rp690rb": 4064,
      "123rb": 4065,
      "129rb": 4066,
      "134k": 4067,
      "212rb": 4068,
      "215k": 4069,
      "185rb": 4070,
      "282rb": 4071,
      "235rb": 4072,
      "376k": 4073,
      "cheesecake": 4074,
      "328k": 4075,
      "rp750rb": 4076,
      "399rb": 4077,
      "304rb": 4078,
      "444rb": 4079,
      "355rb": 4080,
      "348rb": 4081,
      "medan": 4082,
      "476rb": 4083,
      "476k": 4084,
      "460k": 4085,
      "536rb": 4086,
      "550rb": 4087,
      "krim": 4088,
      "730k": 4089,
      "620rb": 4090,
      "supreme": 4091,
      "##bokki": 4092,
      "bsb": 4093,
      "blackfor": 4094,
      "arab": 4095,
      "rp177rb": 4096,
      "rp301rb": 4097,
      "rp495rb": 4098,
      "rp352rb": 4099,
      "mambo": 4100,
      "rp567rb": 4101,
      "kitkat": 4102,
      "naga": 4103,
      "tamago": 4104,
      "meatball": 4105,
      "ribs": 4106,
      "flavor": 4107,
      "waffle": 4108,
      "sparkling": 4109,
      "hokkaido": 4110,
      "blackforest": 4111,
      "bite": 4112,
      "cuan": 4113,
      "gen": 4114,
      "gun": 4115,
      "hamp": 4116,
      "kl": 4117,
      "pom": 4118,
      "##ni": 4119,
      "##no": 4120,
      "##gus": 4121,
      "##eb": 4122,
      "##bb": 4123,
      "##set": 4124,
      "##pberry": 4125,
      "##12rb": 4126,
      "##zone": 4127,
      "marb": 4128,
      "##ell": 4129,
      "sisir": 4130,
      "##bul": 4131,
      "##bus": 4132,
      "##ate": 4133,
      "##eri": 4134,
      "106rb": 4135,
      "bola": 4136,
      "##olo": 4137,
      "rp612rb": 4138,
      "118rb": 4139,
      "142k": 4140,
      "213k": 4141,
      "183rb": 4142,
      "##iko": 4143,
      "marmer": 4144,
      "244rb": 4145,
      "284rb": 4146,
      "284k": 4147,
      "285k": 4148,
      "milli": 4149,
      "365k": 4150,
      "258k": 4151,
      "popcan": 4152,
      "329k": 4153,
      "292rb": 4154,
      "295k": 4155,
      "##yoza": 4156,
      "355k": 4157,
      "462rb": 4158,
      "387k": 4159,
      "592rb": 4160,
      "610rb": 4161,
      "##apple": 4162,
      "raspberry": 4163,
      "suka": 4164,
      "laut": 4165,
      "##ineapple": 4166,
      "rp172rb": 4167,
      "patbingso": 4168,
      "rp348rb": 4169,
      "break": 4170,
      "kid": 4171,
      "kiwi": 4172,
      "tob": 4173,
      "tofu": 4174,
      "rp570rb": 4175,
      "frit": 4176,
      "charco": 4177,
      "bolognese": 4178,
      "##onaire": 4179,
      "nasgor": 4180,
      "candy": 4181,
      "gift": 4182,
      "lidah": 4183,
      "tenderloin": 4184,
      "dodol": 4185,
      "millionaire": 4186,
      "both": 4187,
      "gyoza": 4188,
      "hem": 4189,
      "jep": 4190,
      "kj": 4191,
      "kt": 4192,
      "king": 4193,
      "maki": 4194,
      "pul": 4195,
      "sai": 4196,
      "soka": 4197,
      "tor": 4198,
      "vir": 4199,
      "##ow": 4200,
      "##na": 4201,
      "##bst": 4202,
      "##men": 4203,
      "##wo": 4204,
      "##fast": 4205,
      "##zu": 4206,
      "##xic": 4207,
      "##aken": 4208,
      "##alian": 4209,
      "##keju": 4210,
      "##buk": 4211,
      "ring": 4212,
      "##engseng": 4213,
      "perso": 4214,
      "chick": 4215,
      "miner": 4216,
      "bailey": 4217,
      "##inj": 4218,
      "bolen": 4219,
      "##box": 4220,
      "##cho": 4221,
      "##osa": 4222,
      "125k": 4223,
      "##eeze": 4224,
      "146k": 4225,
      "217rb": 4226,
      "183k": 4227,
      "154k": 4228,
      "155k": 4229,
      "emping": 4230,
      "295rb": 4231,
      "423rb": 4232,
      "385rb": 4233,
      "bali": 4234,
      "bunggus": 4235,
      "strud": 4236,
      "675rb": 4237,
      "720k": 4238,
      "603rb": 4239,
      "##pucino": 4240,
      "krengseng": 4241,
      "shaken": 4242,
      "otako": 4243,
      "740k": 4244,
      "bayam": 4245,
      "tipis": 4246,
      "yaki": 4247,
      "##queen": 4248,
      "rp146rb": 4249,
      "rp115rb": 4250,
      "pepperoni": 4251,
      "lobst": 4252,
      "markisa": 4253,
      "jalar": 4254,
      "rp325rb": 4255,
      "rp345rb": 4256,
      "mbk": 4257,
      "donuth": 4258,
      "sunset": 4259,
      "rp584rb": 4260,
      "roya": 4261,
      "tteok": 4262,
      "calzone": 4263,
      "cimory": 4264,
      "sundae": 4265,
      "aglio": 4266,
      "tape": 4267,
      "opak": 4268,
      "add": 4269,
      "gunkan": 4270,
      "breakfast": 4271,
      "charcoal": 4272,
      "bothok": 4273,
      "virgin": 4274,
      "personal": 4275,
      "baileys": 4276,
      "krengsengan": 4277,
      "lobster": 4278,
      "atas": 4279,
      "basi": 4280,
      "bad": 4281,
      "bant": 4282,
      "bks": 4283,
      "cab": 4284,
      "gan": 4285,
      "iris": 4286,
      "krip": 4287,
      "mu": 4288,
      "mon": 4289,
      "nu": 4290,
      "olio": 4291,
      "pia": 4292,
      "punch": 4293,
      "pineapple": 4294,
      "ra": 4295,
      "sak": 4296,
      "ton": 4297,
      "##ky": 4298,
      "##reng": 4299,
      "##gum": 4300,
      "##man": 4301,
      "##th": 4302,
      "##pat": 4303,
      "##day": 4304,
      "##57rb": 4305,
      "##48rb": 4306,
      "##elo": 4307,
      "cha": 4308,
      "chiku": 4309,
      "tela": 4310,
      "belly": 4311,
      "##imantan": 4312,
      "##olong": 4313,
      "rp657rb": 4314,
      "rp648rb": 4315,
      "moon": 4316,
      "sabab": 4317,
      "188rb": 4318,
      "bir": 4319,
      "159k": 4320,
      "lemak": 4321,
      "259rb": 4322,
      "chocochip": 4323,
      "268k": 4324,
      "297k": 4325,
      "357rb": 4326,
      "410k": 4327,
      "spong": 4328,
      "462k": 4329,
      "bawah": 4330,
      "590rb": 4331,
      "koro": 4332,
      "shawar": 4333,
      "tauge": 4334,
      "blackcur": 4335,
      "rp91rb": 4336,
      "cocoa": 4337,
      "frappucino": 4338,
      "rp183rb": 4339,
      "rp297rb": 4340,
      "kalimantan": 4341,
      "lovers": 4342,
      "rp266rb": 4343,
      "rp268rb": 4344,
      "rp518rb": 4345,
      "delux": 4346,
      "naget": 4347,
      "rose": 4348,
      "watermelon": 4349,
      "pokat": 4350,
      "cheezy": 4351,
      "khas": 4352,
      "pindang": 4353,
      "pearl": 4354,
      "crumble": 4355,
      "silverqueen": 4356,
      "yuzu": 4357,
      "kids": 4358,
      "hemat": 4359,
      "jepang": 4360,
      "mineral": 4361,
      "royal": 4362,
      "sababay": 4363,
      "shawarma": 4364,
      "blackcurr": 4365,
      "deluxe": 4366,
      "82k": 4367,
      "bic": 4368,
      "fo": 4369,
      "gyu": 4370,
      "hat": 4371,
      "sy": 4372,
      "wism": 4373,
      "##jus": 4374,
      "##jicha": 4375,
      "##iyaki": 4376,
      "##ll": 4377,
      "##tan": 4378,
      "##tail": 4379,
      "##two": 4380,
      "##hurt": 4381,
      "##aku": 4382,
      "##ore": 4383,
      "##are": 4384,
      "mac": 4385,
      "mis": 4386,
      "ched": 4387,
      "##ama": 4388,
      "##usss": 4389,
      "##inawa": 4390,
      "belac": 4391,
      "##rio": 4392,
      "reff": 4393,
      "panini": 4394,
      "255k": 4395,
      "blan": 4396,
      "karet": 4397,
      "354k": 4398,
      "406k": 4399,
      "459k": 4400,
      "430rb": 4401,
      "430k": 4402,
      "413rb": 4403,
      "544k": 4404,
      "steam": 4405,
      "tomat": 4406,
      "krupuk": 4407,
      "smoke": 4408,
      "bac": 4409,
      "garam": 4410,
      "##umput": 4411,
      "kimchi": 4412,
      "##cky": 4413,
      "okinawa": 4414,
      "rp134rb": 4415,
      "rp123rb": 4416,
      "cane": 4417,
      "patty": 4418,
      "pack": 4419,
      "mayon": 4420,
      "yoghurt": 4421,
      "caesar": 4422,
      "floss": 4423,
      "##uuuuuuuu": 4424,
      "##cheese": 4425,
      "bungkuuuuuuuu": 4426,
      "you": 4427,
      "magic": 4428,
      "##bulan": 4429,
      "tteokbokki": 4430,
      "bicopi": 4431,
      "hatchi": 4432,
      "wisman": 4433,
      "cheddar": 4434,
      "belacan": 4435,
      "refftwo": 4436,
      "bungkuuuuuuuuusss": 4437,
      "at": 4438,
      "bint": 4439,
      "cad": 4440,
      "dip": 4441,
      "dory": 4442,
      "dabu": 4443,
      "el": 4444,
      "gal": 4445,
      "get": 4446,
      "gok": 4447,
      "hey": 4448,
      "lay": 4449,
      "lil": 4450,
      "met": 4451,
      "ov": 4452,
      "oolong": 4453,
      "poc": 4454,
      "rumput": 4455,
      "sap": 4456,
      "ses": 4457,
      "zeb": 4458,
      "##rup": 4459,
      "##eal": 4460,
      "##cs": 4461,
      "##my": 4462,
      "##pia": 4463,
      "##otan": 4464,
      "pepa": 4465,
      "##sian": 4466,
      "permen": 4467,
      "##icake": 4468,
      "##aise": 4469,
      "##ussss": 4470,
      "##usse": 4471,
      "baked": 4472,
      "##ada": 4473,
      "minicake": 4474,
      "##injo": 4475,
      "##eka": 4476,
      "bubuk": 4477,
      "##cean": 4478,
      "##oster": 4479,
      "cola": 4480,
      "tebal": 4481,
      "mousse": 4482,
      "terang": 4483,
      "##ika": 4484,
      "##sui": 4485,
      "243k": 4486,
      "##uuussss": 4487,
      "483k": 4488,
      "549k": 4489,
      "pecal": 4490,
      "pancake": 4491,
      "bandeng": 4492,
      "chocolatea": 4493,
      "mixed": 4494,
      "pepes": 4495,
      "lipat": 4496,
      "hojicha": 4497,
      "kosong": 4498,
      "pasta": 4499,
      "gelato": 4500,
      "##esse": 4501,
      "kibo": 4502,
      "apel": 4503,
      "tteo": 4504,
      "bungkuuussss": 4505,
      "kapsui": 4506,
      "kupas": 4507,
      "basah": 4508,
      "fanta": 4509,
      "italian": 4510,
      "strudel": 4511,
      "bantal": 4512,
      "irish": 4513,
      "raja": 4514,
      "chikuwa": 4515,
      "gokil": 4516,
      "zebra": 4517,
      "pepaya": 4518,
      "au": 4519,
      "aja": 4520,
      "aburi": 4521,
      "brio": 4522,
      "col": 4523,
      "dom": 4524,
      "fet": 4525,
      "fun": 4526,
      "gla": 4527,
      "ky": 4528,
      "loc": 4529,
      "my": 4530,
      "nn": 4531,
      "nangka": 4532,
      "oy": 4533,
      "pah": 4534,
      "pil": 4535,
      "pao": 4536,
      "rem": 4537,
      "rock": 4538,
      "rabokki": 4539,
      "sam": 4540,
      "sen": 4541,
      "tong": 4542,
      "tek": 4543,
      "tst": 4544,
      "tumbu": 4545,
      "toge": 4546,
      "var": 4547,
      "ver": 4548,
      "##iv": 4549,
      "##ub": 4550,
      "##cin": 4551,
      "##lang": 4552,
      "##zer": 4553,
      "peyek": 4554,
      "##apper": 4555,
      "miss": 4556,
      "##att": 4557,
      "##erame": 4558,
      "##ette": 4559,
      "##opper": 4560,
      "booster": 4561,
      "##esad": 4562,
      "##asan": 4563,
      "##oku": 4564,
      "##ity": 4565,
      "##emade": 4566,
      "##uku": 4567,
      "##roll": 4568,
      "indone": 4569,
      "sou": 4570,
      "soy": 4571,
      "soju": 4572,
      "bgks": 4573,
      "hotbar": 4574,
      "bunga": 4575,
      "burung": 4576,
      "melinjo": 4577,
      "brew": 4578,
      "tiger": 4579,
      "mexic": 4580,
      "##rise": 4581,
      "##boki": 4582,
      "taoge": 4583,
      "whopper": 4584,
      "##low": 4585,
      "##allop": 4586,
      "##iji": 4587,
      "##ugh": 4588,
      "kembang": 4589,
      "scallop": 4590,
      "coca": 4591,
      "quesad": 4592,
      "summer": 4593,
      "singapore": 4594,
      "ramerame": 4595,
      "rp387rb": 4596,
      "chococ": 4597,
      "##uffy": 4598,
      "kohi": 4599,
      "onion": 4600,
      "fluffy": 4601,
      "bombolone": 4602,
      "fuyung": 4603,
      "##ight": 4604,
      "chocolatos": 4605,
      "rhum": 4606,
      "rhabokki": 4607,
      "homemade": 4608,
      "##ustard": 4609,
      "bobba": 4610,
      "arabica": 4611,
      "marble": 4612,
      "pulut": 4613,
      "basil": 4614,
      "cabai": 4615,
      "kripik": 4616,
      "##thday": 4617,
      "birthday": 4618,
      "blackcurrant": 4619,
      "bacem": 4620,
      "bintang": 4621,
      "sesame": 4622,
      "terangbulan": 4623,
      "brioche": 4624,
      "fettu": 4625,
      "pahit": 4626,
      "tumbuk": 4627,
      "ah": 4628,
      "bott": 4629,
      "gor": 4630,
      "har": 4631,
      "jengk": 4632,
      "kes": 4633,
      "kung": 4634,
      "lok": 4635,
      "marg": 4636,
      "nes": 4637,
      "nori": 4638,
      "ox": 4639,
      "pahe": 4640,
      "pip": 4641,
      "pcs": 4642,
      "sw": 4643,
      "shi": 4644,
      "tb": 4645,
      "win": 4646,
      "woku": 4647,
      "##ita": 4648,
      "##rit": 4649,
      "##rim": 4650,
      "##oul": 4651,
      "##ocean": 4652,
      "##bas": 4653,
      "##cing": 4654,
      "##mil": 4655,
      "##her": 4656,
      "##va": 4657,
      "##zz": 4658,
      "##aka": 4659,
      "##otti": 4660,
      "##sia": 4661,
      "##sing": 4662,
      "##sion": 4663,
      "##rbet": 4664,
      "##rbang": 4665,
      "miso": 4666,
      "sin": 4667,
      "sis": 4668,
      "##bury": 4669,
      "chris": 4670,
      "##enger": 4671,
      "##usuk": 4672,
      "##ise": 4673,
      "##isket": 4674,
      "bon": 4675,
      "bogor": 4676,
      "bund": 4677,
      "##bowl": 4678,
      "sorbet": 4679,
      "recheese": 4680,
      "terbang": 4681,
      "##anda": 4682,
      "ifumi": 4683,
      "cookie": 4684,
      "cincang": 4685,
      "gemb": 4686,
      "strawbery": 4687,
      "brisket": 4688,
      "tiga": 4689,
      "blueocean": 4690,
      "lecy": 4691,
      "plain": 4692,
      "seloyang": 4693,
      "kenari": 4694,
      "gandum": 4695,
      "labu": 4696,
      "inari": 4697,
      "##ktail": 4698,
      "halal": 4699,
      "##ondong": 4700,
      "island": 4701,
      "calam": 4702,
      "snow": 4703,
      "##katsu": 4704,
      "kupie": 4705,
      "twis": 4706,
      "chocho": 4707,
      "##ition": 4708,
      "stawberry": 4709,
      "cuanki": 4710,
      "hampers": 4711,
      "klenger": 4712,
      "tobler": 4713,
      "monkey": 4714,
      "syrup": 4715,
      "blanc": 4716,
      "cadbury": 4717,
      "heyshake": 4718,
      "lilin": 4719,
      "sapo": 4720,
      "tteoboki": 4721,
      "jengkol": 4722,
      "pipil": 4723,
      "swiss": 4724,
      "##milk": 4725,
      "ai": 4726,
      "bng": 4727,
      "bus": 4728,
      "bingso": 4729,
      "custard": 4730,
      "dg": 4731,
      "dor": 4732,
      "eng": 4733,
      "fal": 4734,
      "fond": 4735,
      "han": 4736,
      "imp": 4737,
      "jo": 4738,
      "jap": 4739,
      "kam": 4740,
      "kast": 4741,
      "lai": 4742,
      "ling": 4743,
      "lod": 4744,
      "mut": 4745,
      "mod": 4746,
      "nyam": 4747,
      "nong": 4748,
      "pau": 4749,
      "poti": 4750,
      "rambu": 4751,
      "san": 4752,
      "sur": 4753,
      "saw": 4754,
      "sch": 4755,
      "sura": 4756,
      "tin": 4757,
      "tik": 4758,
      "uc": 4759,
      "val": 4760,
      "war": 4761,
      "##jer": 4762,
      "##jes": 4763,
      "##rot": 4764,
      "##non": 4765,
      "##gan": 4766,
      "##ght": 4767,
      "##beng": 4768,
      "##cks": 4769,
      "##cket": 4770,
      "##lek": 4771,
      "##lish": 4772,
      "##tang": 4773,
      "##tuk": 4774,
      "##tain": 4775,
      "##toro": 4776,
      "##sang": 4777,
      "##hon": 4778,
      "##den": 4779,
      "kaki": 4780,
      "##rbar": 4781,
      "max": 4782,
      "machi": 4783,
      "chik": 4784,
      "chesse": 4785,
      "perpotong": 4786,
      "##eds": 4787,
      "##urice": 4788,
      "chicago": 4789,
      "##use": 4790,
      "##adi": 4791,
      "##itr": 4792,
      "belg": 4793,
      "##omo": 4794,
      "##embang": 4795,
      "keci": 4796,
      "sea": 4797,
      "bucket": 4798,
      "##awn": 4799,
      "##epon": 4800,
      "##agi": 4801,
      "##chen": 4802,
      "##imb": 4803,
      "##baya": 4804,
      "ricebox": 4805,
      "panzer": 4806,
      "moi": 4807,
      "moic": 4808,
      "asli": 4809,
      "brownis": 4810,
      "omurice": 4811,
      "putri": 4812,
      "otto": 4813,
      "gemuk": 4814,
      "semp": 4815,
      "##endar": 4816,
      "##avi": 4817,
      "shot": 4818,
      "shrim": 4819,
      "620k": 4820,
      "barbar": 4821,
      "breeze": 4822,
      "aloe": 4823,
      "banroll": 4824,
      "##acter": 4825,
      "nyoklat": 4826,
      "serut": 4827,
      "bubblegum": 4828,
      "plum": 4829,
      "plant": 4830,
      "##maicha": 4831,
      "drum": 4832,
      "parmesan": 4833,
      "blackpapper": 4834,
      "##ugat": 4835,
      "rp213rb": 4836,
      "sprite": 4837,
      "quatt": 4838,
      "kelepon": 4839,
      "tales": 4840,
      "lucky": 4841,
      "aneka": 4842,
      "fruits": 4843,
      "lamtoro": 4844,
      "nougat": 4845,
      "pure": 4846,
      "purple": 4847,
      "cokju": 4848,
      "prawn": 4849,
      "sunrise": 4850,
      "kitchen": 4851,
      "tamie": 4852,
      "petir": 4853,
      "cimkong": 4854,
      "moctail": 4855,
      "kwiti": 4856,
      "two": 4857,
      "cube": 4858,
      "home": 4859,
      "genmaicha": 4860,
      "badak": 4861,
      "sakura": 4862,
      "sponge": 4863,
      "mayones": 4864,
      "getuk": 4865,
      "oval": 4866,
      "poci": 4867,
      "kohike": 4868,
      "bottle": 4869,
      "tbtelor": 4870,
      "winter": 4871,
      "christ": 4872,
      "toblerone": 4873,
      "bngks": 4874,
      "busan": 4875,
      "english": 4876,
      "lodeh": 4877,
      "nongki": 4878,
      "potion": 4879,
      "rambutan": 4880,
      "surabaya": 4881,
      "machiato": 4882,
      "panzerotti": 4883,
      "ottoke": 4884,
      "shrimp": 4885,
      "kwitiaw": 4886,
      "ay": 4887,
      "aff": 4888,
      "bk": 4889,
      "bek": 4890,
      "cemek": 4891,
      "citr": 4892,
      "drip": 4893,
      "em": 4894,
      "ed": 4895,
      "end": 4896,
      "gl": 4897,
      "gy": 4898,
      "gad": 4899,
      "gado": 4900,
      "gali": 4901,
      "gadogado": 4902,
      "ginj": 4903,
      "hai": 4904,
      "haw": 4905,
      "hav": 4906,
      "hambu": 4907,
      "hill": 4908,
      "ichi": 4909,
      "ja": 4910,
      "java": 4911,
      "jiv": 4912,
      "kage": 4913,
      "kura": 4914,
      "kfc": 4915,
      "kiss": 4916,
      "nd": 4917,
      "nak": 4918,
      "nbu": 4919,
      "nach": 4920,
      "obak": 4921,
      "oli": 4922,
      "ps": 4923,
      "pari": 4924,
      "seh": 4925,
      "tai": 4926,
      "wont": 4927,
      "zeri": 4928,
      "##je": 4929,
      "##koro": 4930,
      "##uit": 4931,
      "##cl": 4932,
      "##caf": 4933,
      "##cuit": 4934,
      "##mari": 4935,
      "##meds": 4936,
      "##lis": 4937,
      "##ton": 4938,
      "##tik": 4939,
      "##sa": 4940,
      "##sap": 4941,
      "##sai": 4942,
      "##sman": 4943,
      "##yong": 4944,
      "##pio": 4945,
      "##hai": 4946,
      "##dak": 4947,
      "##fr": 4948,
      "##fee": 4949,
      "##fly": 4950,
      "##anyaki": 4951,
      "##sio": 4952,
      "##ora": 4953,
      "##oreo": 4954,
      "##arin": 4955,
      "##arilla": 4956,
      "##asin": 4957,
      "##ongd": 4958,
      "##eleh": 4959,
      "mir": 4960,
      "##but": 4961,
      "##atw": 4962,
      "##ero": 4963,
      "cham": 4964,
      "chur": 4965,
      "##angan": 4966,
      "##angang": 4967,
      "##ict": 4968,
      "##enut": 4969,
      "##uri": 4970,
      "bakpia": 4971,
      "##adot": 4972,
      "boy": 4973,
      "baikut": 4974,
      "##essing": 4975,
      "##som": 4976,
      "##sosis": 4977,
      "##oko": 4978,
      "belanda": 4979,
      "biscuit": 4980,
      "bistik": 4981,
      "##ambah": 4982,
      "seoul": 4983,
      "buble": 4984,
      "##imi": 4985,
      "##ime": 4986,
      "##ayana": 4987,
      "##afel": 4988,
      "##ros": 4989,
      "##gae": 4990,
      "##une": 4991,
      "pakis": 4992,
      "##able": 4993,
      "moun": 4994,
      "##suke": 4995,
      "##ogato": 4996,
      "brownie": 4997,
      "gulo": 4998,
      "korea": 4999
    }
  }
}